{
  "version": "1.0",
  "truncation": null,
  "padding": null,
  "added_tokens": [],
  "normalizer": null,
  "pre_tokenizer": {
    "type": "Whitespace"
  },
  "post_processor": null,
  "decoder": null,
  "model": {
    "type": "BPE",
    "dropout": null,
    "unk_token": null,
    "continuing_subword_prefix": null,
    "end_of_word_suffix": null,
    "fuse_unk": false,
    "byte_fallback": false,
    "ignore_merges": false,
    "vocab": {
      "\u0001": 0,
      "\u0002": 1,
      "\u0003": 2,
      "\u0004": 3,
      "\u0005": 4,
      "\u0006": 5,
      "\u0007": 6,
      "\b": 7,
      "\u000e": 8,
      "\u000f": 9,
      "\u0010": 10,
      "\u0011": 11,
      "\u0012": 12,
      "\u0013": 13,
      "\u0014": 14,
      "\u0015": 15,
      "\u0016": 16,
      "\u0017": 17,
      "\u0018": 18,
      "\u0019": 19,
      "\u001a": 20,
      "\u001b": 21,
      "\u001c": 22,
      "\u001d": 23,
      "\u001e": 24,
      "\u001f": 25,
      "!": 26,
      "\"": 27,
      "#": 28,
      "$": 29,
      "%": 30,
      "&": 31,
      "'": 32,
      "(": 33,
      ")": 34,
      "*": 35,
      "+": 36,
      ",": 37,
      "-": 38,
      ".": 39,
      "/": 40,
      "0": 41,
      "1": 42,
      "2": 43,
      "3": 44,
      "4": 45,
      "5": 46,
      "6": 47,
      "7": 48,
      "8": 49,
      "9": 50,
      ":": 51,
      ";": 52,
      "<": 53,
      "=": 54,
      ">": 55,
      "?": 56,
      "@": 57,
      "A": 58,
      "B": 59,
      "C": 60,
      "D": 61,
      "E": 62,
      "F": 63,
      "G": 64,
      "H": 65,
      "I": 66,
      "J": 67,
      "K": 68,
      "L": 69,
      "M": 70,
      "N": 71,
      "O": 72,
      "P": 73,
      "Q": 74,
      "R": 75,
      "S": 76,
      "T": 77,
      "U": 78,
      "V": 79,
      "W": 80,
      "X": 81,
      "Y": 82,
      "Z": 83,
      "[": 84,
      "\\": 85,
      "]": 86,
      "^": 87,
      "_": 88,
      "a": 89,
      "b": 90,
      "c": 91,
      "d": 92,
      "e": 93,
      "f": 94,
      "g": 95,
      "h": 96,
      "i": 97,
      "j": 98,
      "k": 99,
      "l": 100,
      "m": 101,
      "n": 102,
      "o": 103,
      "p": 104,
      "q": 105,
      "r": 106,
      "s": 107,
      "t": 108,
      "u": 109,
      "v": 110,
      "w": 111,
      "x": 112,
      "y": 113,
      "z": 114,
      "{": 115,
      "|": 116,
      "}": 117,
      "~": 118,
      "": 119,
      "§": 120,
      "«": 121,
      "­": 122,
      "°": 123,
      "¶": 124,
      "·": 125,
      "»": 126,
      "½": 127,
      "¾": 128,
      "Á": 129,
      "É": 130,
      "Ú": 131,
      "á": 132,
      "é": 133,
      "í": 134,
      "ñ": 135,
      "ó": 136,
      "ú": 137,
      "ü": 138,
      "ý": 139,
      "þ": 140,
      "ʻ": 141,
      "–": 142,
      "—": 143,
      "―": 144,
      "‘": 145,
      "’": 146,
      "“": 147,
      "”": 148,
      "„": 149,
      "†": 150,
      "•": 151,
      "…": 152,
      "−": 153,
      "∗": 154,
      "│": 155,
      "┐": 156,
      "┘": 157,
      "═": 158,
      "■": 159,
      "□": 160,
      "": 161,
      "ﬀ": 162,
      "ﬁ": 163,
      "ﬃ": 164,
      "﻿": 165,
      "><": 166,
      "=\"": 167,
      "pa": 168,
      "on": 169,
      "as": 170,
      "pan": 171,
      "span": 172,
      "ion": 173,
      "di": 174,
      "te": 175,
      "div": 176,
      "is": 177,
      "cl": 178,
      "ass": 179,
      "class": 180,
      "\"><": 181,
      "</": 182,
      "me": 183,
      "ur": 184,
      "er": 185,
      "es": 186,
      "in": 187,
      "tion": 188,
      "or": 189,
      "th": 190,
      "></": 191,
      "ta": 192,
      "da": 193,
      "na": 194,
      "\">": 195,
      "name": 196,
      "co": 197,
      "ar": 198,
      "ed": 199,
      "19": 200,
      "ci": 201,
      "<|": 202,
      "|>": 203,
      "mm": 204,
      "date": 205,
      "cas": 206,
      "iss": 207,
      "urt": 208,
      "de": 209,
      "ch": 210,
      "an": 211,
      "al": 212,
      "Co": 213,
      "for": 214,
      "the": 215,
      "tation": 216,
      "court": 217,
      "pag": 218,
      "case": 219,
      "ty": 220,
      "ON": 221,
      "re": 222,
      "che": 223,
      "TA": 224,
      "ission": 225,
      "en": 226,
      "mmission": 227,
      "mmissioner": 228,
      "of": 229,
      "IS": 230,
      "em": 231,
      "ision": 232,
      "cision": 233,
      "jur": 234,
      "ted": 235,
      "pages": 236,
      "pagesche": 237,
      "pagescheme": 238,
      "LE": 239,
      "citation": 240,
      "ce": 241,
      "res": 242,
      "decision": 243,
      "et": 244,
      "decisiondate": 245,
      "ber": 246,
      "2d": 247,
      "LEX": 248,
      "LEXIS": 249,
      "Commissioner": 250,
      "il": 251,
      "su": 252,
      "Ta": 253,
      "Tax": 254,
      "12": 255,
      "ri": 256,
      "ro": 257,
      "nt": 258,
      "casename": 259,
      "this": 260,
      "ari": 261,
      "id": 262,
      "EN": 263,
      "IN": 264,
      "__": 265,
      "and": 266,
      "oc": 267,
      "ION": 268,
      "mber": 269,
      "RE": 270,
      "our": 271,
      "ul": 272,
      "tate": 273,
      "op": 274,
      "el": 275,
      "cite": 276,
      "ource": 277,
      "resource": 278,
      "forthis": 279,
      "citeforthis": 280,
      "citeforthisresource": 281,
      ">;": 282,
      "ction": 283,
      "nu": 284,
      "number": 285,
      "xt": 286,
      "ni": 287,
      "inion": 288,
      "le": 289,
      "10": 290,
      "to": 291,
      "opinion": 292,
      "par": 293,
      "sh": 294,
      "26": 295,
      "no": 296,
      "ear": 297,
      "ort": 298,
      "20": 299,
      "ation": 300,
      "summ": 301,
      "State": 302,
      "fo": 303,
      "ER": 304,
      "un": 305,
      "text": 306,
      "nited": 307,
      "mon": 308,
      "Ct": 309,
      "ock": 310,
      "United": 311,
      "States": 312,
      "ali": 313,
      "ste": 314,
      "47": 315,
      "year": 316,
      "at": 317,
      "day": 318,
      "TION": 319,
      "it": 320,
      "month": 321,
      "nor": 322,
      "diction": 323,
      "isdiction": 324,
      "zed": 325,
      "jurisdiction": 326,
      "party": 327,
      "datetext": 328,
      "11": 329,
      "ing": 330,
      "ocket": 331,
      "stem": 332,
      "ystem": 333,
      "norm": 334,
      "short": 335,
      "alized": 336,
      "hr": 337,
      "normalized": 338,
      "info": 339,
      "issystem": 340,
      "courtname": 341,
      "jurissystem": 342,
      "ph": 343,
      ".</": 344,
      "RT": 345,
      "/></": 346,
      "STA": 347,
      "ition": 348,
      "pp": 349,
      "AS": 350,
      "sta": 351,
      "emph": 352,
      "asis": 353,
      "No": 354,
      "emphasis": 355,
      "Ci": 356,
      "ter": 357,
      "ING": 358,
      "44": 359,
      "st": 360,
      "CI": 361,
      "ref": 362,
      "Mem": 363,
      "OD": 364,
      "Memo": 365,
      "ad": 366,
      ">,": 367,
      "END": 368,
      "TIONS": 369,
      "lin": 370,
      "13": 371,
      "ASON": 372,
      "href": 373,
      "iled": 374,
      "REASON": 375,
      "CITA": 376,
      "BOD": 377,
      "BODY": 378,
      "START": 379,
      "REASONING": 380,
      "CITATIONS": 381,
      "ination": 382,
      "courtcas": 383,
      "courtcased": 384,
      "aries": 385,
      "ti": 386,
      "cri": 387,
      "ary": 388,
      "BTA": 389,
      "star": 390,
      "summaries": 391,
      "28": 392,
      "=\"/": 393,
      "3d": 394,
      "la": 395,
      "pagination": 396,
      "25": 397,
      "des": 398,
      "ption": 399,
      "data": 400,
      "30": 401,
      "27": 402,
      "29": 403,
      "descri": 404,
      "\">*": 405,
      "link": 406,
      "aria": 407,
      "description": 408,
      "Citation": 409,
      "____": 410,
      "/\"": 411,
      "rom": 412,
      "typ": 413,
      "se": 414,
      "ct": 415,
      "18": 416,
      "CO": 417,
      "he": 418,
      "US": 419,
      "16": 420,
      "15": 421,
      "17": 422,
      "OF": 423,
      "etition": 424,
      "De": 425,
      "commissioner": 426,
      "li": 427,
      "ull": 428,
      "46": 429,
      "In": 430,
      "Court": 431,
      "full": 432,
      "ong": 433,
      "\"></": 434,
      "con": 435,
      "pon": 436,
      "23": 437,
      "col": 438,
      "that": 439,
      "fullcasename": 440,
      "etitioner": 441,
      "14": 442,
      "AL": 443,
      "198": 444,
      "be": 445,
      "dent": 446,
      "citations": 447,
      "docket": 448,
      "long": 449,
      "Docket": 450,
      "RI": 451,
      "oche": 452,
      "dates": 453,
      "caseinfo": 454,
      "courtcasedoche": 455,
      "courtcasedochead": 456,
      "party1": 457,
      "shortcasename": 458,
      "docketnumber": 459,
      "courtinfo": 460,
      "shortname": 461,
      "normalizedlong": 462,
      "normalizedshortname": 463,
      "normalizedlongname": 464,
      "party2": 465,
      "types": 466,
      "os": 467,
      "ff": 468,
      "24": 469,
      "ga": 470,
      "AN": 471,
      "decisiondates": 472,
      "ment": 473,
      "App": 474,
      "dis": 475,
      "195": 476,
      "typesty": 477,
      ".,": 478,
      "eal": 479,
      "ra": 480,
      "196": 481,
      "pondent": 482,
      "mp": 483,
      "ma": 484,
      "193": 485,
      "CH": 486,
      "sel": 487,
      "coun": 488,
      "summary": 489,
      "der": 490,
      "197": 491,
      "ru": 492,
      "typestyle": 493,
      "The": 494,
      "40": 495,
      "50": 496,
      "counsel": 497,
      "courtsummary": 498,
      "was": 499,
      "filed": 500,
      "22": 501,
      "bo": 502,
      "pos": 503,
      "Petitioner": 504,
      "pro": 505,
      ".\"><": 506,
      "app": 507,
      "ent": 508,
      "gated": 509,
      "by": 510,
      "ev": 511,
      "romul": 512,
      "romulgated": 513,
      "fen": 514,
      "Filed": 515,
      "Promulgated": 516,
      "33": 517,
      "COM": 518,
      "rep": 519,
      "45": 520,
      "ly": 521,
      "Res": 522,
      "lain": 523,
      "TER": 524,
      "ard": 525,
      "CCH": 526,
      "48": 527,
      "fi": 528,
      "49": 529,
      "Respondent": 530,
      "35": 531,
      "au": 532,
      "37": 533,
      "66": 534,
      "TE": 535,
      ")\"><": 536,
      "ant": 537,
      "ge": 538,
      "RIA": 539,
      "38": 540,
      "21": 541,
      "ud": 542,
      "ISS": 543,
      "COMM": 544,
      "ou": 545,
      "ue": 546,
      "UE": 547,
      "position": 548,
      "dant": 549,
      "fendant": 550,
      "TERN": 551,
      "VEN": 552,
      "ol": 553,
      "ne": 554,
      "________": 555,
      "199": 556,
      "ISSION": 557,
      "COMMISSION": 558,
      "hi": 559,
      "ve": 560,
      "COMMISSIONER": 561,
      "36": 562,
      "OR": 563,
      "ther": 564,
      "INTERN": 565,
      "disposition": 566,
      "470": 567,
      "REVEN": 568,
      "REVENUE": 569,
      "39": 570,
      "INTERNAL": 571,
      "from": 572,
      "ow": 573,
      "PE": 574,
      "80": 575,
      "ith": 576,
      "resen": 577,
      "dy": 578,
      "ir": 579,
      "ver": 580,
      "55": 581,
      "gu": 582,
      "ill": 583,
      "ell": 584,
      "vi": 585,
      "lainti": 586,
      "laintiff": 587,
      "..": 588,
      "fileddate": 589,
      "his": 590,
      "body": 591,
      "qu": 592,
      "Appeal": 593,
      "represen": 594,
      "60": 595,
      "ENT": 596,
      "courtcasedoc": 597,
      "courtcasedocbody": 598,
      "31": 599,
      "70": 600,
      "representation": 601,
      "tri": 602,
      "69": 603,
      "TI": 604,
      "per": 605,
      "87": 606,
      "ng": 607,
      "Bo": 608,
      "ced": 609,
      "85": 610,
      "TH": 611,
      "89": 612,
      "ck": 613,
      "ll": 614,
      "ay": 615,
      "amp": 616,
      "with": 617,
      "43": 618,
      "ity": 619,
      "mo": 620,
      "41": 621,
      "79": 622,
      "gh": 623,
      "enter": 624,
      "son": 625,
      "ex": 626,
      "us": 627,
      "65": 628,
      "ding": 629,
      "00": 630,
      "not": 631,
      "nal": 632,
      "Se": 633,
      "67": 634,
      "Appeals": 635,
      "42": 636,
      "ember": 637,
      "tor": 638,
      "Rev": 639,
      "Board": 640,
      "AR": 641,
      "RES": 642,
      "her": 643,
      "AND": 644,
      "am": 645,
      "06": 646,
      "449": 647,
      "Inter": 648,
      "447": 649,
      "are": 650,
      "enue": 651,
      "59": 652,
      "57": 653,
      "88": 654,
      "09": 655,
      "ub": 656,
      "OND": 657,
      "pr": 658,
      "ess": 659,
      "thor": 660,
      "Revenue": 661,
      "ten": 662,
      "Mar": 663,
      "cu": 664,
      ">.": 665,
      "author": 666,
      "Internal": 667,
      "Es": 668,
      "RESP": 669,
      "PETI": 670,
      "PETITION": 671,
      "RESPOND": 672,
      "RESPONDENT": 673,
      "cted": 674,
      "PETITIONER": 675,
      "can": 676,
      "orp": 677,
      "04": 678,
      "ellant": 679,
      "07": 680,
      "86": 681,
      "05": 682,
      "udg": 683,
      "56": 684,
      "03": 685,
      "ab": 686,
      "02": 687,
      "01": 688,
      "all": 689,
      "petitioner": 690,
      "Plaintiff": 691,
      "08": 692,
      "type": 693,
      "fa": 694,
      "Defendant": 695,
      "under": 696,
      "appeal": 697,
      "ded": 698,
      "den": 699,
      "ran": 700,
      "cial": 701,
      ".\"": 702,
      "469": 703,
      "34": 704,
      "man": 705,
      "so": 706,
      "jor": 707,
      "defendant": 708,
      "LL": 709,
      "STATE": 710,
      "major": 711,
      "will": 712,
      "Inc": 713,
      "majority": 714,
      "77": 715,
      "448": 716,
      "UN": 717,
      "1925": 718,
      "reced": 719,
      "1928": 720,
      "stru": 721,
      "1927": 722,
      "Petitioners": 723,
      "eb": 724,
      "udgment": 725,
      "und": 726,
      "32": 727,
      "une": 728,
      "ut": 729,
      "ag": 730,
      "ac": 731,
      "ew": 732,
      "order": 733,
      "THE": 734,
      "May": 735,
      "lip": 736,
      "June": 737,
      "ig": 738,
      "whi": 739,
      "68": 740,
      "min": 741,
      "Re": 742,
      "ho": 743,
      "ry": 744,
      "ton": 745,
      "note": 746,
      "trial": 747,
      "WL": 748,
      "Nos": 749,
      "which": 750,
      "ish": 751,
      "),": 752,
      "CT": 753,
      "offi": 754,
      "99": 755,
      "78": 756,
      "ext": 757,
      "AP": 758,
      "lo": 759,
      "Oc": 760,
      "part": 761,
      "Apr": 762,
      "ate": 763,
      "sub": 764,
      "ai": 765,
      "April": 766,
      "anu": 767,
      "tober": 768,
      "October": 769,
      "ght": 770,
      "75": 771,
      "ame": 772,
      "opinions": 773,
      "Au": 774,
      "Dec": 775,
      "CE": 776,
      "extra": 777,
      "March": 778,
      "judgment": 779,
      "ha": 780,
      "extracted": 781,
      "Sep": 782,
      "entered": 783,
      "RO": 784,
      "URT": 785,
      "ural": 786,
      "eld": 787,
      "Janu": 788,
      "wo": 789,
      "1929": 790,
      "page": 791,
      "January": 792,
      "tember": 793,
      "1930": 794,
      "September": 795,
      "IST": 796,
      "motion": 797,
      "Feb": 798,
      "respondent": 799,
      "December": 800,
      "Febru": 801,
      "....": 802,
      "February": 803,
      "wer": 804,
      "58": 805,
      "________________": 806,
      "cer": 807,
      "pe": 808,
      "Jo": 809,
      "udge": 810,
      "Dis": 811,
      "**": 812,
      "COURT": 813,
      "ure": 814,
      "62": 815,
      "fore": 816,
      "Decision": 817,
      "plaintiff": 818,
      "ree": 819,
      "Jul": 820,
      "struct": 821,
      "lic": 822,
      "recedent": 823,
      "For": 824,
      "argu": 825,
      "Appellant": 826,
      "Corp": 827,
      ").": 828,
      "Ro": 829,
      "ark": 830,
      "its": 831,
      "DE": 832,
      "pub": 833,
      "gust": 834,
      "IA": 835,
      "br": 836,
      "eral": 837,
      "comp": 838,
      "context": 839,
      "orts": 840,
      "August": 841,
      "fin": 842,
      "cor": 843,
      "structural": 844,
      "aw": 845,
      "Precedent": 846,
      "scan": 847,
      "July": 848,
      "ME": 849,
      "ts": 850,
      "54": 851,
      "76": 852,
      "pre": 853,
      "DIST": 854,
      "DISTRI": 855,
      "ged": 856,
      "ins": 857,
      "Nov": 858,
      "--": 859,
      "center": 860,
      "fe": 861,
      "1926": 862,
      "DISTRICT": 863,
      "74": 864,
      "APPE": 865,
      "ot": 866,
      "ank": 867,
      "Estate": 868,
      "83": 869,
      "official": 870,
      "red": 871,
      "November": 872,
      "od": 873,
      "ney": 874,
      "mit": 875,
      "ner": 876,
      "Judge": 877,
      "one": 878,
      "ef": 879,
      "clai": 880,
      "here": 881,
      "bel": 882,
      "lish": 883,
      "Su": 884,
      "tr": 885,
      "TED": 886,
      "tra": 887,
      "hn": 888,
      "pur": 889,
      "action": 890,
      "82": 891,
      "Esq": 892,
      "FOR": 893,
      "unt": 894,
      "51": 895,
      "we": 896,
      "72": 897,
      "law": 898,
      "Con": 899,
      "rit": 900,
      "ated": 901,
      "mpan": 902,
      "Appel": 903,
      "ss": 904,
      "73": 905,
      "were": 906,
      "du": 907,
      "Distri": 908,
      "Coun": 909,
      "cti": 910,
      "52": 911,
      "At": 912,
      "est": 913,
      "81": 914,
      "Pro": 915,
      "mer": 916,
      "ic": 917,
      "UM": 918,
      "63": 919,
      "84": 920,
      "ED": 921,
      "Comm": 922,
      "dence": 923,
      "had": 924,
      "rcu": 925,
      "ally": 926,
      "able": 927,
      "EC": 928,
      "ule": 929,
      "ley": 930,
      "tain": 931,
      "med": 932,
      "District": 933,
      "mpany": 934,
      "argued": 935,
      "53": 936,
      "ine": 937,
      "ive": 938,
      "ke": 939,
      "OP": 940,
      "slip": 941,
      "ase": 942,
      "61": 943,
      "Mo": 944,
      "av": 945,
      "mat": 946,
      "counselor": 947,
      "ms": 948,
      "ved": 949,
      "ich": 950,
      "On": 951,
      "(“": 952,
      "cur": 953,
      "state": 954,
      "1934": 955,
      "rust": 956,
      "1941": 957,
      "1931": 958,
      "AD": 959,
      "Be": 960,
      "UNI": 961,
      "110": 962,
      "71": 963,
      "other": 964,
      "cided": 965,
      "ces": 966,
      "fter": 967,
      "An": 968,
      "evi": 969,
      "cau": 970,
      "ust": 971,
      "inde": 972,
      "ting": 973,
      "writ": 974,
      "appellant": 975,
      "requ": 976,
      "112": 977,
      "ance": 978,
      "rcuit": 979,
      "NE": 980,
      "torney": 981,
      "John": 982,
      "cy": 983,
      "proper": 984,
      "mitted": 985,
      "corp": 986,
      "ork": 987,
      "STATES": 988,
      "UNITED": 989,
      "uld": 990,
      "ffir": 991,
      "1961": 992,
      "fn": 993,
      "stri": 994,
      "gain": 995,
      "PA": 996,
      "si": 997,
      "char": 998,
      "64": 999,
      "90": 1000,
      "This": 1001,
      "argueddate": 1002,
      "po": 1003,
      "ach": 1004,
      "County": 1005,
      "ffi": 1006,
      "sen": 1007,
      "ple": 1008,
      "Defendants": 1009,
      "Wil": 1010,
      "men": 1011,
      "ile": 1012,
      "ATION": 1013,
      "Rule": 1014,
      "ason": 1015,
      "1983": 1016,
      "evidence": 1017,
      "cess": 1018,
      "wh": 1019,
      "alle": 1020,
      "ers": 1021,
      "ect": 1022,
      "pri": 1023,
      "ased": 1024,
      "TR": 1025,
      "again": 1026,
      "sup": 1027,
      "ds": 1028,
      "publish": 1029,
      "Ch": 1030,
      "111": 1031,
      "Circuit": 1032,
      "ous": 1033,
      "ES": 1034,
      "tax": 1035,
      "section": 1036,
      "miss": 1037,
      "cons": 1038,
      "there": 1039,
      "Act": 1040,
      "land": 1041,
      "have": 1042,
      "APPEAL": 1043,
      "cre": 1044,
      "MA": 1045,
      "ca": 1046,
      "ip": 1047,
      "form": 1048,
      "against": 1049,
      "has": 1050,
      "NO": 1051,
      "We": 1052,
      "lee": 1053,
      "1981": 1054,
      "92": 1055,
      "INION": 1056,
      "1980": 1057,
      "OPINION": 1058,
      "tal": 1059,
      "Company": 1060,
      "_f": 1061,
      "comm": 1062,
      "found": 1063,
      "fact": 1064,
      "_fnote": 1065,
      "pay": 1066,
      "1956": 1067,
      ")(": 1068,
      "LI": 1069,
      "97": 1070,
      "Bank": 1071,
      "1932": 1072,
      "any": 1073,
      "cause": 1074,
      "out": 1075,
      "_fnote1": 1076,
      "Rep": 1077,
      "St": 1078,
      "index": 1079,
      "partment": 1080,
      "Mc": 1081,
      "been": 1082,
      "Al": 1083,
      "ore": 1084,
      "1945": 1085,
      "FI": 1086,
      "written": 1087,
      "CK": 1088,
      "1987": 1089,
      "ser": 1090,
      "bl": 1091,
      "emp": 1092,
      "see": 1093,
      "loy": 1094,
      "um": 1095,
      "liam": 1096,
      "mark": 1097,
      "ties": 1098,
      "Har": 1099,
      "1946": 1100,
      "time": 1101,
      "98": 1102,
      "age": 1103,
      "1957": 1104,
      "reports": 1105,
      "jury": 1106,
      "290": 1107,
      "old": 1108,
      "ens": 1109,
      "label": 1110,
      "convi": 1111,
      "do": 1112,
      "go": 1113,
      "Decided": 1114,
      "Ex": 1115,
      "reason": 1116,
      "two": 1117,
      "made": 1118,
      "New": 1119,
      "1971": 1120,
      "vers": 1121,
      "UR": 1122,
      "td": 1123,
      "vil": 1124,
      "count": 1125,
      "tory": 1126,
      "petitioners": 1127,
      "if": 1128,
      "bert": 1129,
      "1960": 1130,
      "91": 1131,
      "1943": 1132,
      "Ar": 1133,
      "held": 1134,
      "ren": 1135,
      "ob": 1136,
      "AM": 1137,
      "ges": 1138,
      "ia": 1139,
      "tt": 1140,
      "1940": 1141,
      "1948": 1142,
      "laint": 1143,
      "published": 1144,
      "ash": 1145,
      "DER": 1146,
      "ack": 1147,
      "distri": 1148,
      "1933": 1149,
      "GE": 1150,
      "ote": 1151,
      "ecu": 1152,
      "1955": 1153,
      "may": 1154,
      "1991": 1155,
      "95": 1156,
      "IL": 1157,
      "rou": 1158,
      "rans": 1159,
      "96": 1160,
      "He": 1161,
      "ving": 1162,
      "As": 1163,
      "MENT": 1164,
      "chan": 1165,
      "property": 1166,
      "William": 1167,
      "Sub": 1168,
      "petition": 1169,
      "before": 1170,
      "BER": 1171,
      "after": 1172,
      "ble": 1173,
      "oration": 1174,
      "dismiss": 1175,
      "vision": 1176,
      "........": 1177,
      "err": 1178,
      "ans": 1179,
      "Department": 1180,
      "Le": 1181,
      "1944": 1182,
      "fic": 1183,
      "appeals": 1184,
      "SE": 1185,
      "who": 1186,
      "deni": 1187,
      "foot": 1188,
      "ments": 1189,
      "gra": 1190,
      "ies": 1191,
      "1951": 1192,
      "OH": 1193,
      "****": 1194,
      "94": 1195,
      "LA": 1196,
      "issue": 1197,
      "FO": 1198,
      "Pe": 1199,
      "ned": 1200,
      "enti": 1201,
      "suant": 1202,
      "1979": 1203,
      "him": 1204,
      "ven": 1205,
      "estate": 1206,
      "deter": 1207,
      "king": 1208,
      "ILL": 1209,
      "upon": 1210,
      "recor": 1211,
      "2020": 1212,
      "1989": 1213,
      "val": 1214,
      "hether": 1215,
      "1959": 1216,
      "footnote": 1217,
      "Trust": 1218,
      "gr": 1219,
      "ederal": 1220,
      "1982": 1221,
      "1992": 1222,
      "CA": 1223,
      "inc": 1224,
      "1970": 1225,
      "93": 1226,
      "1984": 1227,
      "Plaintiffs": 1228,
      "bur": 1229,
      "view": 1230,
      "tract": 1231,
      "”)": 1232,
      "1962": 1233,
      "1977": 1234,
      "Bro": 1235,
      "ington": 1236,
      "1963": 1237,
      "vis": 1238,
      "their": 1239,
      "right": 1240,
      "llow": 1241,
      "bu": 1242,
      "Ad": 1243,
      "she": 1244,
      "1969": 1245,
      "final": 1246,
      "&#": 1247,
      "follow": 1248,
      "ffirmed": 1249,
      "com": 1250,
      "Slip": 1251,
      "ris": 1252,
      "NW": 1253,
      "gen": 1254,
      "itu": 1255,
      "lication": 1256,
      "complaint": 1257,
      "Un": 1258,
      "wn": 1259,
      "Attorney": 1260,
      "ok": 1261,
      "Code": 1262,
      "ress": 1263,
      "ily": 1264,
      "late": 1265,
      "x27": 1266,
      "block": 1267,
      "les": 1268,
      "vel": 1269,
      "ider": 1270,
      "TY": 1271,
      "INC": 1272,
      "formation": 1273,
      "Submitted": 1274,
      "VI": 1275,
      "imp": 1276,
      "come": 1277,
      "Appellee": 1278,
      "pi": 1279,
      "1965": 1280,
      "----": 1281,
      "RA": 1282,
      "employ": 1283,
      "UD": 1284,
      "1988": 1285,
      "Sta": 1286,
      "whether": 1287,
      "1958": 1288,
      "senten": 1289,
      "but": 1290,
      "fer": 1291,
      "claim": 1292,
      "supp": 1293,
      "162": 1294,
      "1994": 1295,
      "NW2d": 1296,
      "1952": 1297,
      "1966": 1298,
      "Case": 1299,
      "ire": 1300,
      "udi": 1301,
      "1949": 1302,
      "1954": 1303,
      "fir": 1304,
      "blockqu": 1305,
      "non": 1306,
      "dition": 1307,
      "ross": 1308,
      "ning": 1309,
      "over": 1310,
      "ves": 1311,
      "ator": 1312,
      "proce": 1313,
      "llll": 1314,
      "blockquote": 1315,
      "DA": 1316,
      "1985": 1317,
      "hear": 1318,
      "1942": 1319,
      "ential": 1320,
      "sa": 1321,
      "issu": 1322,
      "1978": 1323,
      "footnotemark": 1324,
      "LO": 1325,
      "Law": 1326,
      "Wash": 1327,
      "Car": 1328,
      "MAR": 1329,
      "1975": 1330,
      "=\"#": 1331,
      "conviction": 1332,
      "Ma": 1333,
      "SON": 1334,
      "1986": 1335,
      "ler": 1336,
      "parties": 1337,
      "fied": 1338,
      "preced": 1339,
      "ual": 1340,
      "ww": 1341,
      "115": 1342,
      "EL": 1343,
      "2021": 1344,
      "II": 1345,
      "mul": 1346,
      "OL": 1347,
      "1935": 1348,
      "ick": 1349,
      "oin": 1350,
      "1937": 1351,
      "ount": 1352,
      "pursuant": 1353,
      "viol": 1354,
      "precedential": 1355,
      "IT": 1356,
      "MOR": 1357,
      "abo": 1358,
      "set": 1359,
      "PAN": 1360,
      "Ste": 1361,
      "om": 1362,
      "tin": 1363,
      "review": 1364,
      "ches": 1365,
      "reg": 1366,
      "stitu": 1367,
      ".”": 1368,
      "Mill": 1369,
      "vol": 1370,
      "1972": 1371,
      "hio": 1372,
      "dings": 1373,
      "test": 1374,
      "meri": 1375,
      "uring": 1376,
      "308": 1377,
      "1990": 1378,
      "lan": 1379,
      "APPEALS": 1380,
      "im": 1381,
      "ice": 1382,
      "ames": 1383,
      "Robert": 1384,
      "district": 1385,
      "ORDER": 1386,
      "119": 1387,
      "Pa": 1388,
      "1947": 1389,
      "beg": 1390,
      "Ohio": 1391,
      "UT": 1392,
      "mith": 1393,
      "309": 1394,
      "1964": 1395,
      "denied": 1396,
      ",</": 1397,
      "DO": 1398,
      "Op": 1399,
      "Sch": 1400,
      "inte": 1401,
      "ques": 1402,
      "Motion": 1403,
      "Fran": 1404,
      "2023": 1405,
      "293": 1406,
      "1976": 1407,
      "ations": 1408,
      "contract": 1409,
      "years": 1410,
      "defendants": 1411,
      "JUD": 1412,
      "consider": 1413,
      "multi": 1414,
      "Ge": 1415,
      "SU": 1416,
      "pen": 1417,
      "art": 1418,
      "ject": 1419,
      "ron": 1420,
      "COMPAN": 1421,
      "Dav": 1422,
      "MAN": 1423,
      "ey": 1424,
      "ie": 1425,
      "Washington": 1426,
      "use": 1427,
      "such": 1428,
      "1993": 1429,
      "PART": 1430,
      "213": 1431,
      "gro": 1432,
      "ld": 1433,
      "ps": 1434,
      "multiple": 1435,
      "ild": 1436,
      "sequ": 1437,
      "person": 1438,
      "ECF": 1439,
      "See": 1440,
      "COMPANY": 1441,
      "SO": 1442,
      "stan": 1443,
      "stant": 1444,
      "TT": 1445,
      "Th": 1446,
      "without": 1447,
      "deny": 1448,
      "question": 1449,
      "Mich": 1450,
      "ger": 1451,
      "ceased": 1452,
      "155": 1453,
      "vice": 1454,
      "Bar": 1455,
      "lor": 1456,
      "led": 1457,
      "spe": 1458,
      "also": 1459,
      "107": 1460,
      "ship": 1461,
      "1995": 1462,
      "BA": 1463,
      "James": 1464,
      "when": 1465,
      "Gen": 1466,
      "MI": 1467,
      "Civil": 1468,
      "amount": 1469,
      "udges": 1470,
      "Ser": 1471,
      "bus": 1472,
      "history": 1473,
      "minis": 1474,
      "determin": 1475,
      "Or": 1476,
      "1968": 1477,
      "claims": 1478,
      "sequent": 1479,
      "York": 1480,
      "ise": 1481,
      "1938": 1482,
      "ARD": 1483,
      "certain": 1484,
      "Before": 1485,
      "prior": 1486,
      "error": 1487,
      "said": 1488,
      "/\">": 1489,
      "ings": 1490,
      "1953": 1491,
      "amen": 1492,
      "first": 1493,
      "/><": 1494,
      "EX": 1495,
      "PH": 1496,
      "respon": 1497,
      "101": 1498,
      "refer": 1499,
      "grant": 1500,
      "FR": 1501,
      "ute": 1502,
      "cover": 1503,
      "La": 1504,
      "gn": 1505,
      "117": 1506,
      "own": 1507,
      "TON": 1508,
      "2022": 1509,
      "114": 1510,
      "500": 1511,
      "new": 1512,
      "matches": 1513,
      "Reports": 1514,
      "144": 1515,
      "hol": 1516,
      "ald": 1517,
      "2024": 1518,
      "ating": 1519,
      "Affirmed": 1520,
      "Ed": 1521,
      "Tho": 1522,
      "mi": 1523,
      "ministr": 1524,
      "act": 1525,
      "ose": 1526,
      "trans": 1527,
      "orth": 1528,
      "ency": 1529,
      "108": 1530,
      "4718": 1531,
      "//": 1532,
      "Ameri": 1533,
      "Offi": 1534,
      "ker": 1535,
      "city": 1536,
      "2019": 1537,
      "fnr": 1538,
      "CU": 1539,
      "Tex": 1540,
      "did": 1541,
      "100": 1542,
      "200": 1543,
      "1973": 1544,
      "Char": 1545,
      "about": 1546,
      "JA": 1547,
      "inter": 1548,
      "105": 1549,
      "align": 1550,
      "next": 1551,
      "ranted": 1552,
      "TRUS": 1553,
      "://": 1554,
      "Jr": 1555,
      "htt": 1556,
      "116": 1557,
      "4489": 1558,
      "255": 1559,
      "000": 1560,
      "fn_fnote1": 1561,
      "Federal": 1562,
      "Smith": 1563,
      "more": 1564,
      "ople": 1565,
      "167": 1566,
      "guil": 1567,
      "MORAND": 1568,
      "fnr_fnote1": 1569,
      "311": 1570,
      "ee": 1571,
      "130": 1572,
      "substant": 1573,
      "ground": 1574,
      "DI": 1575,
      "HO": 1576,
      "WILL": 1577,
      "car": 1578,
      "tur": 1579,
      "102": 1580,
      "City": 1581,
      "ouse": 1582,
      "MEMORAND": 1583,
      "MEMORANDUM": 1584,
      "312": 1585,
      "bri": 1586,
      "information": 1587,
      "income": 1588,
      "they": 1589,
      "rest": 1590,
      "ever": 1591,
      "subsequent": 1592,
      "Execu": 1593,
      "ESTATE": 1594,
      "indi": 1595,
      "Comp": 1596,
      "252": 1597,
      "1950": 1598,
      "appro": 1599,
      "would": 1600,
      "Geor": 1601,
      "https": 1602,
      ":</": 1603,
      "BE": 1604,
      "It": 1605,
      "ail": 1606,
      "rece": 1607,
      "ility": 1608,
      "agree": 1609,
      "procee": 1610,
      "RY": 1611,
      "120": 1612,
      "103": 1613,
      "cond": 1614,
      "MO": 1615,
      "resi": 1616,
      "2018": 1617,
      "1939": 1618,
      "exp": 1619,
      "work": 1620,
      "oper": 1621,
      "283": 1622,
      "ctive": 1623,
      "ustice": 1624,
      "sho": 1625,
      "1974": 1626,
      "begins": 1627,
      "326": 1628,
      "Chi": 1629,
      "Nation": 1630,
      "gan": 1631,
      "ging": 1632,
      "=\"\">": 1633,
      "123": 1634,
      "127": 1635,
      "104": 1636,
      "2016": 1637,
      "170": 1638,
      "alleged": 1639,
      "commr": 1640,
      "220": 1641,
      "rd": 1642,
      "296": 1643,
      "1936": 1644,
      "reasons": 1645,
      "Di": 1646,
      "Held": 1647,
      "PO": 1648,
      "fur": 1649,
      "clu": 1650,
      "secu": 1651,
      "ANT": 1652,
      "necess": 1653,
      "orders": 1654,
      "147": 1655,
      "eff": 1656,
      "child": 1657,
      "reli": 1658,
      "ative": 1659,
      "fense": 1660,
      "Appellate": 1661,
      "charged": 1662,
      "uni": 1663,
      "well": 1664,
      "125": 1665,
      "106": 1666,
      "attorney": 1667,
      "because": 1668,
      "TO": 1669,
      "into": 1670,
      "orig": 1671,
      "Col": 1672,
      "ence": 1673,
      "now": 1674,
      "duct": 1675,
      "Asso": 1676,
      "hearing": 1677,
      "Ass": 1678,
      "Me": 1679,
      "cv": 1680,
      "pt": 1681,
      "trust": 1682,
      "stock": 1683,
      "COR": 1684,
      "153": 1685,
      "General": 1686,
      "guilty": 1687,
      "ath": 1688,
      "tro": 1689,
      "ale": 1690,
      "165": 1691,
      "LLC": 1692,
      "IO": 1693,
      "ife": 1694,
      "tent": 1695,
      "conten": 1696,
      "dedu": 1697,
      "matter": 1698,
      "ffici": 1699,
      "origin": 1700,
      "Cla": 1701,
      "sou": 1702,
      "iness": 1703,
      "129": 1704,
      "ult": 1705,
      "135": 1706,
      "292": 1707,
      "violation": 1708,
      "testi": 1709,
      "Opinion": 1710,
      "680": 1711,
      "Ber": 1712,
      "granted": 1713,
      "ese": 1714,
      "2025": 1715,
      "118": 1716,
      "4485": 1717,
      "tive": 1718,
      "Deceased": 1719,
      "FOIA": 1720,
      "FA": 1721,
      "HE": 1722,
      "way": 1723,
      "stat": 1724,
      "287": 1725,
      "lated": 1726,
      "303": 1727,
      "map": 1728,
      "version": 1729,
      "OHN": 1730,
      "value": 1731,
      "Cl": 1732,
      "CON": 1733,
      "fg": 1734,
      "iz": 1735,
      "divid": 1736,
      "str": 1737,
      "156": 1738,
      "Rich": 1739,
      "pg": 1740,
      "ctions": 1741,
      "109": 1742,
      "281": 1743,
      "282": 1744,
      "305": 1745,
      "peri": 1746,
      "facts": 1747,
      "record": 1748,
      "cal": 1749,
      "rul": 1750,
      "ward": 1751,
      "279": 1752,
      "pgmap": 1753,
      "(\"": 1754,
      ".)": 1755,
      "Fo": 1756,
      "JOHN": 1757,
      "kt": 1758,
      "must": 1759,
      "same": 1760,
      "cle": 1761,
      "suffici": 1762,
      "113": 1763,
      "following": 1764,
      "bor": 1765,
      "ista": 1766,
      "tional": 1767,
      "136": 1768,
      "149": 1769,
      "331": 1770,
      "225": 1771,
      "bank": 1772,
      "deli": 1773,
      "269": 1774,
      "501": 1775,
      "320": 1776,
      "316": 1777,
      "Cali": 1778,
      "bar": 1779,
      "each": 1780,
      "paid": 1781,
      "only": 1782,
      "rial": 1783,
      "lack": 1784,
      "212": 1785,
      "435": 1786,
      "AF": 1787,
      "Dkt": 1788,
      "Far": 1789,
      "Mor": 1790,
      "ford": 1791,
      "445": 1792,
      "280": 1793,
      "151": 1794,
      "lice": 1795,
      "vised": 1796,
      "National": 1797,
      "540": 1798,
      "Fir": 1799,
      "Oil": 1800,
      "affir": 1801,
      "ling": 1802,
      "inson": 1803,
      "ene": 1804,
      "299": 1805,
      "159": 1806,
      "officer": 1807,
      "subject": 1808,
      "PER": 1809,
      "UB": 1810,
      "WA": 1811,
      "Wal": 1812,
      "where": 1813,
      "192": 1814,
      "cific": 1815,
      "noti": 1816,
      "175": 1817,
      "141": 1818,
      "Corporation": 1819,
      "corporation": 1820,
      "should": 1821,
      "Cal": 1822,
      "ET": 1823,
      "ns": 1824,
      "caseopinions": 1825,
      "rel": 1826,
      "289": 1827,
      "291": 1828,
      "465": 1829,
      "ents": 1830,
      "BERT": 1831,
      "Sh": 1832,
      "ana": 1833,
      "cross": 1834,
      "por": 1835,
      "tary": 1836,
      "ets": 1837,
      "suit": 1838,
      "275": 1839,
      "COL": 1840,
      "178": 1841,
      "1967": 1842,
      "mate": 1843,
      "charge": 1844,
      ".<": 1845,
      "450": 1846,
      "mination": 1847,
      "leg": 1848,
      "Charles": 1849,
      "brief": 1850,
      "./": 1851,
      "ial": 1852,
      "ors": 1853,
      "262": 1854,
      "2017": 1855,
      "4480": 1856,
      "132": 1857,
      "163": 1858,
      "240": 1859,
      "ECUT": 1860,
      "George": 1861,
      "vid": 1862,
      "dire": 1863,
      "122": 1864,
      "284": 1865,
      "278": 1866,
      "183": 1867,
      "145": 1868,
      "242": 1869,
      "typestyl": 1870,
      "preme": 1871,
      "udicial": 1872,
      "EXECUT": 1873,
      "317": 1874,
      "NY": 1875,
      "pres": 1876,
      "three": 1877,
      "arily": 1878,
      "then": 1879,
      "121": 1880,
      "166": 1881,
      "ired": 1882,
      "552": 1883,
      "BIA": 1884,
      "Mr": 1885,
      "dri": 1886,
      "ki": 1887,
      "274": 1888,
      "ruste": 1889,
      "execu": 1890,
      "prin": 1891,
      "below": 1892,
      "denying": 1893,
      "210": 1894,
      "bro": 1895,
      "let": 1896,
      "LEY": 1897,
      "shall": 1898,
      "260": 1899,
      "179": 1900,
      "appel": 1901,
      ");": 1902,
      "215": 1903,
      "ater": 1904,
      "191": 1905,
      "180": 1906,
      "main": 1907,
      "********": 1908,
      "vely": 1909,
      "business": 1910,
      "247": 1911,
      "350": 1912,
      "Justice": 1913,
      "NA": 1914,
      "San": 1915,
      "ness": 1916,
      "ocu": 1917,
      "258": 1918,
      "294": 1919,
      "186": 1920,
      "176": 1921,
      "177": 1922,
      "oss": 1923,
      "333": 1924,
      "456": 1925,
      "Supreme": 1926,
      "223": 1927,
      "CR": 1928,
      "Par": 1929,
      "ael": 1930,
      "ony": 1931,
      "ist": 1932,
      "mes": 1933,
      "urance": 1934,
      "134": 1935,
      "Ins": 1936,
      "ession": 1937,
      "recei": 1938,
      "Bur": 1939,
      "Den": 1940,
      "Gre": 1941,
      "mand": 1942,
      "vor": 1943,
      "”),": 1944,
      "276": 1945,
      "AD3d": 1946,
      "support": 1947,
      "214": 1948,
      "Ph": 1949,
      "ks": 1950,
      "less": 1951,
      "casehistory": 1952,
      "reed": 1953,
      "ett": 1954,
      "221": 1955,
      "provid": 1956,
      "ower": 1957,
      "TICE": 1958,
      "fail": 1959,
      "request": 1960,
      "Richard": 1961,
      "First": 1962,
      "After": 1963,
      "Gra": 1964,
      "IG": 1965,
      "Judges": 1966,
      "ison": 1967,
      "dama": 1968,
      "209": 1969,
      "131": 1970,
      "133": 1971,
      "139": 1972,
      "301": 1973,
      "fici": 1974,
      "ample": 1975,
      "changed": 1976,
      "All": 1977,
      "El": 1978,
      "Lou": 1979,
      "fel": 1980,
      "ken": 1981,
      "ast": 1982,
      "unpublished": 1983,
      "itle": 1984,
      "257": 1985,
      "prob": 1986,
      "provision": 1987,
      "used": 1988,
      "Proced": 1989,
      "affirm": 1990,
      "324": 1991,
      "JO": 1992,
      "ones": 1993,
      "individ": 1994,
      "304": 1995,
      "161": 1996,
      "168": 1997,
      "ough": 1998,
      "allow": 1999,
      "rough": 2000,
      "224": 2001,
      "544": 2002,
      "four": 2003,
      "gree": 2004,
      "erred": 2005,
      "rele": 2006,
      "ERS": 2007,
      "285": 2008,
      "300": 2009,
      "181": 2010,
      "173": 2011,
      "466": 2012,
      "239": 2013,
      "Order": 2014,
      "Judgment": 2015,
      "ration": 2016,
      "203": 2017,
      "205": 2018,
      "463": 2019,
      "400": 2020,
      "________________________": 2021,
      "plaintiffs": 2022,
      "IAM": 2023,
      "ously": 2024,
      "Fin": 2025,
      "VIS": 2026,
      "mas": 2027,
      "ons": 2028,
      "2000": 2029,
      "477": 2030,
      "189": 2031,
      "158": 2032,
      "143": 2033,
      "148": 2034,
      "................": 2035,
      "Frank": 2036,
      "strong": 2037,
      "sufficient": 2038,
      "327": 2039,
      "CV": 2040,
      "Po": 2041,
      "nia": 2042,
      "2001": 2043,
      "286": 2044,
      "298": 2045,
      "160": 2046,
      "157": 2047,
      "172": 2048,
      "appear": 2049,
      "application": 2050,
      "example": 2051,
      "____________________": 2052,
      "David": 2053,
      "Michael": 2054,
      "COLUM": 2055,
      "319": 2056,
      "313": 2057,
      "Bri": 2058,
      "GRO": 2059,
      "Where": 2060,
      "bet": 2061,
      "nment": 2062,
      "retur": 2063,
      "berg": 2064,
      "201": 2065,
      "473": 2066,
      "188": 2067,
      "COUN": 2068,
      "154": 2069,
      "467": 2070,
      "cedent": 2071,
      "allen": 2072,
      "favor": 2073,
      "sentence": 2074,
      "American": 2075,
      "further": 2076,
      "So": 2077,
      "nce": 2078,
      "van": 2079,
      "lex": 2080,
      "264": 2081,
      "461": 2082,
      "ANK": 2083,
      "372": 2084,
      "389": 2085,
      "within": 2086,
      "MARY": 2087,
      "WILLIAM": 2088,
      "CORP": 2089,
      "JR": 2090,
      "KE": 2091,
      "Trans": 2092,
      "fornia": 2093,
      "263": 2094,
      "254": 2095,
      "ealth": 2096,
      "386": 2097,
      "Jose": 2098,
      "publication": 2099,
      "determined": 2100,
      "amended": 2101,
      "Texas": 2102,
      "substantive": 2103,
      "originally": 2104,
      "366": 2105,
      "Don": 2106,
      "PUB": 2107,
      "hal": 2108,
      "ide": 2109,
      "267": 2110,
      "2015": 2111,
      "ster": 2112,
      "tic": 2113,
      "140": 2114,
      "243": 2115,
      "thern": 2116,
      "commen": 2117,
      "Gu": 2118,
      "Hol": 2119,
      "Mon": 2120,
      "ak": 2121,
      "je": 2122,
      "wit": 2123,
      "190": 2124,
      "reet": 2125,
      "128": 2126,
      "4710": 2127,
      "302": 2128,
      "271": 2129,
      "187": 2130,
      "164": 2131,
      "174": 2132,
      "...": 2133,
      "APPELL": 2134,
      "OHIO": 2135,
      "records": 2136,
      "Stan": 2137,
      "www": 2138,
      "necessarily": 2139,
      "relief": 2140,
      "COLUMBIA": 2141,
      "146": 2142,
      "348": 2143,
      "Wo": 2144,
      "ft": 2145,
      "ord": 2146,
      "rent": 2147,
      "second": 2148,
      "169": 2149,
      "colle": 2150,
      "Miller": 2151,
      ",”": 2152,
      "211": 2153,
      "cipa": 2154,
      "them": 2155,
      "2006": 2156,
      "constitu": 2157,
      "241": 2158,
      "discre": 2159,
      "405": 2160,
      "field": 2161,
      "380": 2162,
      "UND": 2163,
      "ween": 2164,
      "GR": 2165,
      "PRE": 2166,
      "{¶": 2167,
      "inten": 2168,
      "ory": 2169,
      "cost": 2170,
      "182": 2171,
      "150": 2172,
      "entit": 2173,
      "489": 2174,
      "357": 2175,
      "358": 2176,
      "ability": 2177,
      "--------": 2178,
      "Office": 2179,
      "TRUST": 2180,
      "Ho": 2181,
      "Park": 2182,
      "ham": 2183,
      "ite": 2184,
      "len": 2185,
      "these": 2186,
      "204": 2187,
      "138": 2188,
      "404": 2189,
      "certi": 2190,
      "agreement": 2191,
      "Joseph": 2192,
      "Lo": 2193,
      "Wh": 2194,
      "cing": 2195,
      "pla": 2196,
      "invol": 2197,
      "table": 2198,
      "revised": 2199,
      "LES": 2200,
      "152": 2201,
      "231": 2202,
      "496": 2203,
      "owner": 2204,
      "DEPART": 2205,
      "People": 2206,
      "DEPARTMENT": 2207,
      "315": 2208,
      "412": 2209,
      "Ben": 2210,
      "Lu": 2211,
      "Per": 2212,
      "brou": 2213,
      "due": 2214,
      "gin": 2215,
      "judge": 2216,
      "win": 2217,
      "══": 2218,
      "thewritten": 2219,
      "LER": 2220,
      "202": 2221,
      "208": 2222,
      "ASED": 2223,
      "250": 2224,
      "238": 2225,
      "222": 2226,
      "vices": 2227,
      "opinionscan": 2228,
      "229": 2229,
      "750": 2230,
      "Action": 2231,
      "Mfg": 2232,
      "house": 2233,
      "ask": 2234,
      "207": 2235,
      "288": 2236,
      "184": 2237,
      "235": 2238,
      "379": 2239,
      "some": 2240,
      "MES": 2241,
      "JUDG": 2242,
      "227": 2243,
      "325": 2244,
      "340": 2245,
      "Bu": 2246,
      "Pub": 2247,
      "She": 2248,
      "Sou": 2249,
      "cus": 2250,
      "clud": 2251,
      "real": 2252,
      "2011": 2253,
      "508": 2254,
      "both": 2255,
      "556": 2256,
      "purch": 2257,
      "NEW": 2258,
      "service": 2259,
      "does": 2260,
      "llllllll": 2261,
      "issued": 2262,
      "228": 2263,
      "217": 2264,
      "FF": 2265,
      "Ri": 2266,
      "mis": 2267,
      "esta": 2268,
      "ince": 2269,
      "decided": 2270,
      "off": 2271,
      "show": 2272,
      "137": 2273,
      "338": 2274,
      "483": 2275,
      "373": 2276,
      "failed": 2277,
      "minal": 2278,
      "ates": 2279,
      "ureau": 2280,
      "Associ": 2281,
      "between": 2282,
      "brought": 2283,
      "219": 2284,
      "566": 2285,
      "ATE": 2286,
      "DEN": 2287,
      "Hen": 2288,
      "IR": 2289,
      "Min": 2290,
      "WE": 2291,
      "gi": 2292,
      "company": 2293,
      "2014": 2294,
      "2008": 2295,
      "351": 2296,
      "668": 2297,
      "578": 2298,
      "partner": 2299,
      "DECE": 2300,
      "Common": 2301,
      "counts": 2302,
      "sought": 2303,
      "cluded": 2304,
      "during": 2305,
      "join": 2306,
      "ond": 2307,
      "challen": 2308,
      "lees": 2309,
      "253": 2310,
      "394": 2311,
      "Administr": 2312,
      "issues": 2313,
      "Thomas": 2314,
      "Assista": 2315,
      "EXECUTOR": 2316,
      "discretion": 2317,
      "Br": 2318,
      "SI": 2319,
      "federal": 2320,
      "hold": 2321,
      "io": 2322,
      "dated": 2323,
      "265": 2324,
      "ortga": 2325,
      "mony": 2326,
      "295": 2327,
      "353": 2328,
      "oll": 2329,
      "usb": 2330,
      "award": 2331,
      "interest": 2332,
      "received": 2333,
      "Louis": 2334,
      "218": 2335,
      "347": 2336,
      "Bld": 2337,
      "HER": 2338,
      "MER": 2339,
      "gar": 2340,
      "than": 2341,
      "266": 2342,
      "233": 2343,
      "245": 2344,
      "249": 2345,
      "499": 2346,
      "ROBERT": 2347,
      "previ": 2348,
      "curity": 2349,
      "California": 2350,
      "Phil": 2351,
      "entitled": 2352,
      "Bldg": 2353,
      "244": 2354,
      "321": 2355,
      "411": 2356,
      "Nor": 2357,
      "air": 2358,
      "cent": 2359,
      "mur": 2360,
      "mar": 2361,
      "sig": 2362,
      "tions": 2363,
      "decedent": 2364,
      "126": 2365,
      "232": 2366,
      "248": 2367,
      "county": 2368,
      "492": 2369,
      "Executor": 2370,
      "FACT": 2371,
      "West": 2372,
      "yl": 2373,
      "cies": 2374,
      "mmig": 2375,
      "forth": 2376,
      "sum": 2377,
      "INE": 2378,
      "261": 2379,
      "addition": 2380,
      "509": 2381,
      "poss": 2382,
      "corre": 2383,
      "Procedure": 2384,
      "CORPOR": 2385,
      "Assistant": 2386,
      "AB": 2387,
      "ben": 2388,
      "440": 2389,
      "259": 2390,
      "236": 2391,
      "490": 2392,
      "370": 2393,
      "361": 2394,
      "4699": 2395,
      "Under": 2396,
      "consideration": 2397,
      "deliver": 2398,
      "314": 2399,
      "550": 2400,
      "Do": 2401,
      "How": 2402,
      "based": 2403,
      "igh": 2404,
      "road": 2405,
      "sever": 2406,
      "504": 2407,
      "poses": 2408,
      "494": 2409,
      "356": 2410,
      "551": 2411,
      "ods": 2412,
      "reques": 2413,
      "Paul": 2414,
      "DECEASED": 2415,
      "\")": 2416,
      "323": 2417,
      "757": 2418,
      "By": 2419,
      "Jones": 2420,
      "pu": 2421,
      "presen": 2422,
      "sch": 2423,
      "sale": 2424,
      "dict": 2425,
      "thir": 2426,
      "206": 2427,
      "ters": 2428,
      "ctor": 2429,
      "462": 2430,
      "237": 2431,
      "being": 2432,
      "365": 2433,
      "exce": 2434,
      "ical": 2435,
      "fication": 2436,
      "notice": 2437,
      "usband": 2438,
      "AT": 2439,
      "Go": 2440,
      "Her": 2441,
      "lu": 2442,
      "las": 2443,
      "clus": 2444,
      "degree": 2445,
      "256": 2446,
      "270": 2447,
      "277": 2448,
      "453": 2449,
      "355": 2450,
      "364": 2451,
      "ngel": 2452,
      "4479": 2453,
      "cut": 2454,
      "PETITIONERS": 2455,
      "Brown": 2456,
      "BACK": 2457,
      "JAMES": 2458,
      "resident": 2459,
      "rustee": 2460,
      "329": 2461,
      "318": 2462,
      "417": 2463,
      "Am": 2464,
      "CAR": 2465,
      "LY": 2466,
      "ap": 2467,
      "ade": 2468,
      "RED": 2469,
      "elect": 2470,
      "Cir": 2471,
      "272": 2472,
      "337": 2473,
      "339": 2474,
      "378": 2475,
      "398": 2476,
      "motions": 2477,
      "fees": 2478,
      "tained": 2479,
      "alleging": 2480,
      "proceeding": 2481,
      "half": 2482,
      "PRO": 2483,
      "blish": 2484,
      "ugh": 2485,
      "ually": 2486,
      "respe": 2487,
      "row": 2488,
      "444": 2489,
      "ston": 2490,
      "making": 2491,
      "481": 2492,
      "352": 2493,
      "359": 2494,
      "376": 2495,
      "THO": 2496,
      "Appellants": 2497,
      "Chief": 2498,
      "ortgage": 2499,
      "529": 2500,
      "Bureau": 2501,
      "En": 2502,
      "Haw": 2503,
      "ST": 2504,
      "VE": 2505,
      "vac": 2506,
      "wife": 2507,
      "1924": 2508,
      "475": 2509,
      "ities": 2510,
      "4488": 2511,
      "251": 2512,
      "273": 2513,
      "171": 2514,
      "502": 2515,
      "Summ": 2516,
      "until": 2517,
      "plea": 2518,
      "answer": 2519,
      "pital": 2520,
      "statute": 2521,
      "legal": 2522,
      "damages": 2523,
      "GROUND": 2524,
      "BACKGROUND": 2525,
      "742": 2526,
      "BR": 2527,
      "Nat": 2528,
      "VER": 2529,
      "vo": 2530,
      "asser": 2531,
      "remand": 2532,
      "leas": 2533,
      "446": 2534,
      "306": 2535,
      "488": 2536,
      "384": 2537,
      "385": 2538,
      "363": 2539,
      "369": 2540,
      "4706": 2541,
      "561": 2542,
      "distribu": 2543,
      "establish": 2544,
      "mmigration": 2545,
      ".’": 2546,
      "560": 2547,
      "HA": 2548,
      "JJ": 2549,
      "UL": 2550,
      "b8": 2551,
      "yer": 2552,
      "cli": 2553,
      "inclu": 2554,
      "124": 2555,
      "2013": 2556,
      "2009": 2557,
      "stated": 2558,
      "464": 2559,
      "concur": 2560,
      "board": 2561,
      "457": 2562,
      "neg": 2563,
      "CES": 2564,
      "while": 2565,
      "Street": 2566,
      "rights": 2567,
      "Division": 2568,
      ".\">": 2569,
      "246": 2570,
      "424": 2571,
      "511": 2572,
      "521": 2573,
      ">(": 2574,
      "SEC": 2575,
      "nes": 2576,
      "pet": 2577,
      "clos": 2578,
      "instru": 2579,
      "through": 2580,
      "471": 2581,
      "443": 2582,
      "401": 2583,
      "403": 2584,
      "367": 2585,
      "368": 2586,
      "391": 2587,
      "verdict": 2588,
      "moved": 2589,
      "ago": 2590,
      "herein": 2591,
      "mers": 2592,
      "taxpay": 2593,
      "760": 2594,
      "Ba": 2595,
      "CL": 2596,
      "HAR": 2597,
      "VAN": 2598,
      "War": 2599,
      "b6": 2600,
      "bb": 2601,
      "since": 2602,
      "force": 2603,
      "ERI": 2604,
      "CIR": 2605,
      "307": 2606,
      "142": 2607,
      "408": 2608,
      "334": 2609,
      "371": 2610,
      "559": 2611,
      "FILE": 2612,
      "ville": 2613,
      "general": 2614,
      "testimony": 2615,
      "felony": 2616,
      "322": 2617,
      "422": 2618,
      "547": 2619,
      "BY": 2620,
      "Ken": 2621,
      "Mary": 2622,
      "gre": 2623,
      "har": 2624,
      "ier": 2625,
      "ida": 2626,
      "nat": 2627,
      "could": 2628,
      "cher": 2629,
      "LEN": 2630,
      "268": 2631,
      "441": 2632,
      "line": 2633,
      "451": 2634,
      "459": 2635,
      "487": 2636,
      "4700": 2637,
      "562": 2638,
      "public": 2639,
      "Union": 2640,
      "416": 2641,
      "415": 2642,
      "565": 2643,
      "722": 2644,
      "Angel": 2645,
      "Date": 2646,
      "Pen": 2647,
      "Pat": 2648,
      "SA": 2649,
      "STE": 2650,
      "UG": 2651,
      "bre": 2652,
      "sent": 2653,
      "ware": 2654,
      "tes": 2655,
      "those": 2656,
      "decl": 2657,
      "Commission": 2658,
      "sey": 2659,
      "typest": 2660,
      "mother": 2661,
      "prison": 2662,
      "purposes": 2663,
      "COUNTY": 2664,
      "CORPORATION": 2665,
      "345": 2666,
      "425": 2667,
      "579": 2668,
      "KK": 2669,
      "WI": 2670,
      "affirmed": 2671,
      "bber": 2672,
      "fil": 2673,
      "ful": 2674,
      "ses": 2675,
      "sed": 2676,
      "though": 2677,
      "2010": 2678,
      "2002": 2679,
      "days": 2680,
      "503": 2681,
      "482": 2682,
      "nex": 2683,
      "392": 2684,
      "555": 2685,
      "agency": 2686,
      "obje": 2687,
      "Edward": 2688,
      "delivered": 2689,
      "413": 2690,
      "418": 2691,
      "IE": 2692,
      "Judicial": 2693,
      "bed": 2694,
      "far": 2695,
      "how": 2696,
      "ither": 2697,
      "medi": 2698,
      "cases": 2699,
      "conduct": 2700,
      "ffer": 2701,
      "701": 2702,
      "879": 2703,
      "ctively": 2704,
      "FIR": 2705,
      "convicted": 2706,
      "previously": 2707,
      "possession": 2708,
      "226": 2709,
      "216": 2710,
      "731": 2711,
      "Jer": 2712,
      "Mil": 2713,
      "ees": 2714,
      "mor": 2715,
      "sp": 2716,
      "476": 2717,
      "4712": 2718,
      "497": 2719,
      "necti": 2720,
      "806": 2721,
      "709": 2722,
      "696": 2723,
      "Martin": 2724,
      "home": 2725,
      "claimed": 2726,
      "cipal": 2727,
      "426": 2728,
      "512": 2729,
      "541": 2730,
      "734": 2731,
      "811": 2732,
      "BANK": 2733,
      "Ele": 2734,
      "FED": 2735,
      "GA": 2736,
      "Pri": 2737,
      "To": 2738,
      "ined": 2739,
      "cil": 2740,
      "related": 2741,
      "att": 2742,
      "atta": 2743,
      "iti": 2744,
      "term": 2745,
      "468": 2746,
      "CHAR": 2747,
      "402": 2748,
      "bound": 2749,
      "1996": 2750,
      "4697": 2751,
      "And": 2752,
      "police": 2753,
      "mental": 2754,
      "determination": 2755,
      "appellee": 2756,
      "Green": 2757,
      "JUDGMENT": 2758,
      "CIRCU": 2759,
      ".]": 2760,
      "/#": 2761,
      "346": 2762,
      "527": 2763,
      "518": 2764,
      "523": 2765,
      "Ac": 2766,
      "Amen": 2767,
      "BRO": 2768,
      "Back": 2769,
      "CTION": 2770,
      "CATION": 2771,
      "Dan": 2772,
      "Spe": 2773,
      "Ti": 2774,
      "equ": 2775,
      "just": 2776,
      "ylor": 2777,
      "194": 2778,
      "defici": 2779,
      "offense": 2780,
      "opiniontype": 2781,
      "478": 2782,
      "4716": 2783,
      "374": 2784,
      "397": 2785,
      "792": 2786,
      "4477": 2787,
      "NEY": 2788,
      "payment": 2789,
      "Williams": 2790,
      "employment": 2791,
      "DOJ": 2792,
      "Service": 2793,
      "failure": 2794,
      "presented": 2795,
      "CIRCUIT": 2796,
      "545": 2797,
      "580": 2798,
      "612": 2799,
      "749": 2800,
      "Cor": 2801,
      "Li": 2802,
      "Pleas": 2803,
      "war": 2804,
      "tel": 2805,
      "dard": 2806,
      "former": 2807,
      "cell": 2808,
      "num": 2809,
      "tern": 2810,
      "add": 2811,
      "234": 2812,
      "process": 2813,
      "appoin": 2814,
      "484": 2815,
      "6653": 2816,
      "381": 2817,
      "383": 2818,
      "659": 2819,
      "673": 2820,
      "Connecti": 2821,
      "ATIONAL": 2822,
      "gover": 2823,
      "SOCI": 2824,
      "MICH": 2825,
      "perior": 2826,
      "reedom": 2827,
      "costs": 2828,
      "230": 2829,
      "341": 2830,
      "342": 2831,
      "439": 2832,
      "713": 2833,
      "BO": 2834,
      "Chr": 2835,
      "MIN": 2836,
      "Ru": 2837,
      "fra": 2838,
      "free": 2839,
      "pl": 2840,
      "vance": 2841,
      "nar": 2842,
      "Coal": 2843,
      "later": 2844,
      "460": 2845,
      "Information": 2846,
      "even": 2847,
      "362": 2848,
      "693": 2849,
      "cker": 2850,
      "submitted": 2851,
      "wood": 2852,
      "Supp": 2853,
      "Appellees": 2854,
      "required": 2855,
      "render": 2856,
      "SUPRE": 2857,
      "provisions": 2858,
      "taxpayer": 2859,
      "SUPREME": 2860,
      "310": 2861,
      "349": 2862,
      "343": 2863,
      "428": 2864,
      "589": 2865,
      "Fif": 2866,
      "Hon": 2867,
      "Mat": 2868,
      "North": 2869,
      "Van": 2870,
      "WO": 2871,
      "og": 2872,
      "tru": 2873,
      "up": 2874,
      "national": 2875,
      "recover": 2876,
      "etc": 2877,
      "ric": 2878,
      "2012": 2879,
      "money": 2880,
      "INGS": 2881,
      "administr": 2882,
      "185": 2883,
      "335": 2884,
      "five": 2885,
      "375": 2886,
      "hicle": 2887,
      "399": 2888,
      "THER": 2889,
      "752": 2890,
      "licy": 2891,
      "Johnson": 2892,
      "reasonable": 2893,
      "convictions": 2894,
      "III": 2895,
      "witness": 2896,
      "APPELLATE": 2897,
      "519": 2898,
      "515": 2899,
      "934": 2900,
      "ah": 2901,
      "pun": 2902,
      "uation": 2903,
      "§§": 2904,
      "”).": 2905,
      "ales": 2906,
      "susta": 2907,
      "INS": 2908,
      "___": 2909,
      "2007": 2910,
      "4713": 2911,
      "4486": 2912,
      "constru": 2913,
      "concer": 2914,
      ".,</": 2915,
      "racti": 2916,
      "406": 2917,
      "prosecu": 2918,
      "332": 2919,
      "1998": 2920,
      "360": 2921,
      "having": 2922,
      "provided": 2923,
      "517": 2924,
      "617": 2925,
      "838": 2926,
      "Freedom": 2927,
      "GO": 2928,
      "Id": 2929,
      "Is": 2930,
      "Upon": 2931,
      "file": 2932,
      "gation": 2933,
      "oun": 2934,
      "ried": 2935,
      "442": 2936,
      "advance": 2937,
      "limi": 2938,
      "407": 2939,
      "336": 2940,
      "605": 2941,
      "Mark": 2942,
      "accor": 2943,
      "commit": 2944,
      "indic": 2945,
      "proceedings": 2946,
      "individual": 2947,
      "several": 2948,
      "Connecticut": 2949,
      "429": 2950,
      "433": 2951,
      "570": 2952,
      "CAL": 2953,
      "Health": 2954,
      "Immigration": 2955,
      "Jack": 2956,
      "Los": 2957,
      "LAND": 2958,
      "Ltd": 2959,
      "Pl": 2960,
      "Real": 2961,
      "TS": 2962,
      "There": 2963,
      "oil": 2964,
      "arding": 2965,
      "rew": 2966,
      "decisions": 2967,
      "2004": 2968,
      "inger": 2969,
      "Inv": 2970,
      "fully": 2971,
      "409": 2972,
      "507": 2973,
      "454": 2974,
      "480": 2975,
      "auto": 2976,
      "4709": 2977,
      "573": 2978,
      "575": 2979,
      "Prosecu": 2980,
      "NOTICE": 2981,
      "VID": 2982,
      "sentenced": 2983,
      "contends": 2984,
      "430": 2985,
      "650": 2986,
      "721": 2987,
      "Fi": 2988,
      "FIN": 2989,
      "Ha": 2990,
      "Lab": 2991,
      "Mot": 2992,
      "Ve": 2993,
      "cis": 2994,
      "mill": 2995,
      "taken": 2996,
      "cident": 2997,
      "remain": 2998,
      "ander": 2999,
      "472": 3000,
      "4715": 3001,
      "separ": 3002,
      "377": 3003,
      "vio": 3004,
      "690": 3005,
      "amily": 3006,
      "881": 3007,
      "seeking": 3008,
      "ronic": 3009,
      "Davis": 3010,
      "personal": 3011,
      "granting": 3012,
      "VISION": 3013,
      "intended": 3014,
      "negli": 3015,
      "328": 3016,
      "513": 3017,
      "543": 3018,
      "724": 3019,
      "911": 3020,
      "BUR": 3021,
      "Lin": 3022,
      "Pur": 3023,
      "back": 3024,
      "husband": 3025,
      "mil": 3026,
      "mmer": 3027,
      "ois": 3028,
      "umes": 3029,
      "vs": 3030,
      "worth": 3031,
      "dan": 3032,
      "ISH": 3033,
      "derson": 3034,
      "fire": 3035,
      "388": 3036,
      "601": 3037,
      "708": 3038,
      "________________________________": 3039,
      "six": 3040,
      "cretary": 3041,
      "capa": 3042,
      "graph": 3043,
      "rison": 3044,
      "PUBLI": 3045,
      "clusion": 3046,
      "Summary": 3047,
      "FILED": 3048,
      "Angeles": 3049,
      "420": 3050,
      "438": 3051,
      "611": 3052,
      "770": 3053,
      "907": 3054,
      "Cle": 3055,
      "Hill": 3056,
      "Sha": 3057,
      "ave": 3058,
      "b7": 3059,
      "my": 3060,
      "474": 3061,
      "452": 3062,
      "455": 3063,
      "485": 3064,
      "393": 3065,
      "706": 3066,
      "432": 3067,
      "595": 3068,
      "773": 3069,
      "specific": 3070,
      "DIVISION": 3071,
      "344": 3072,
      "431": 3073,
      "522": 3074,
      "534": 3075,
      "646": 3076,
      "759": 3077,
      "860": 3078,
      "BI": 3079,
      "Page": 3080,
      "docu": 3081,
      "ju": 3082,
      "mortgage": 3083,
      "wise": 3084,
      "asso": 3085,
      "dation": 3086,
      "ilding": 3087,
      "rick": 3088,
      "ENN": 3089,
      "Cite": 3090,
      "rais": 3091,
      "498": 3092,
      "667": 3093,
      "669": 3094,
      "RIAM": 3095,
      "871": 3096,
      "874": 3097,
      "sole": 3098,
      "account": 3099,
      "finding": 3100,
      "site": 3101,
      "rence": 3102,
      "proceed": 3103,
      "JUDGE": 3104,
      "Clark": 3105,
      "Donald": 3106,
      "murder": 3107,
      "Fifth": 3108,
      "828": 3109,
      "Cri": 3110,
      "DON": 3111,
      "Si": 3112,
      "YL": 3113,
      "ror": 3114,
      "spa": 3115,
      "ys": 3116,
      "rey": 3117,
      "ences": 3118,
      "robber": 3119,
      "297": 3120,
      "mpson": 3121,
      "491": 3122,
      "662": 3123,
      "guage": 3124,
      "702": 3125,
      "794": 3126,
      "4478": 3127,
      "868": 3128,
      "776": 3129,
      "684": 3130,
      "appellants": 3131,
      "AMERI": 3132,
      "dismissed": 3133,
      "language": 3134,
      "children": 3135,
      "capacity": 3136,
      "640": 3137,
      "730": 3138,
      "Cur": 3139,
      "FE": 3140,
      "Fred": 3141,
      "Petition": 3142,
      "Sa": 3143,
      "SER": 3144,
      "SUM": 3145,
      "Tra": 3146,
      "binson": 3147,
      "iel": 3148,
      "west": 3149,
      "pass": 3150,
      "ink": 3151,
      "cott": 3152,
      "revers": 3153,
      "ele": 3154,
      "stein": 3155,
      "linois": 3156,
      "505": 3157,
      "506": 3158,
      "458": 3159,
      "390": 3160,
      "695": 3161,
      "895": 3162,
      "ordered": 3163,
      "served": 3164,
      "enses": 3165,
      "sheets": 3166,
      "impro": 3167,
      "510": 3168,
      "537": 3169,
      "628": 3170,
      "621": 3171,
      "655": 3172,
      "Du": 3173,
      "During": 3174,
      "Emp": 3175,
      "Fact": 3176,
      "Jeff": 3177,
      "Ke": 3178,
      "Ly": 3179,
      "MC": 3180,
      "Ne": 3181,
      "Trial": 3182,
      "Wat": 3183,
      "bra": 3184,
      "call": 3185,
      "ied": 3186,
      "judges": 3187,
      "kes": 3188,
      "kins": 3189,
      "port": 3190,
      "rule": 3191,
      "ane": 3192,
      "enco": 3193,
      "sus": 3194,
      "479": 3195,
      "life": 3196,
      "prote": 3197,
      "provi": 3198,
      "387": 3199,
      "557": 3200,
      "608": 3201,
      "trix": 3202,
      "857": 3203,
      "Security": 3204,
      "675": 3205,
      "591": 3206,
      "861": 3207,
      "insurance": 3208,
      "states": 3209,
      "side": 3210,
      "Also": 3211,
      "ruling": 3212,
      "533": 3213,
      "Ada": 3214,
      "BAR": 3215,
      "Mag": 3216,
      "Ter": 3217,
      "WN": 3218,
      "vant": 3219,
      "web": 3220,
      "int": 3221,
      "rev": 3222,
      "Taylor": 3223,
      "ASSOCI": 3224,
      "354": 3225,
      "665": 3226,
      "vehicle": 3227,
      "600": 3228,
      "878": 3229,
      "678": 3230,
      "appealed": 3231,
      "751": 3232,
      "LIP": 3233,
      "TRUSTE": 3234,
      "PUBLICATION": 3235,
      "423": 3236,
      "546": 3237,
      "610": 3238,
      "633": 3239,
      "887": 3240,
      "926": 3241,
      "913": 3242,
      "CIS": 3243,
      "If": 3244,
      "KA": 3245,
      "SCH": 3246,
      "bit": 3247,
      "h1": 3248,
      "hl": 3249,
      "han": 3250,
      "loc": 3251,
      "dian": 3252,
      "temp": 3253,
      "TAX": 3254,
      "emption": 3255,
      "verse": 3256,
      "795": 3257,
      "Secretary": 3258,
      "568": 3259,
      "781": 3260,
      "753": 3261,
      "otherwise": 3262,
      "taxable": 3263,
      "Addition": 3264,
      "volumes": 3265,
      "amend": 3266,
      "response": 3267,
      "CURIAM": 3268,
      "Colum": 3269,
      "testified": 3270,
      "JOSE": 3271,
      "benef": 3272,
      "524": 3273,
      "538": 3274,
      "670": 3275,
      "846": 3276,
      "835": 3277,
      "Er": 3278,
      "Gas": 3279,
      "Il": 3280,
      "JE": 3281,
      "Ja": 3282,
      "NATIONAL": 3283,
      "Rul": 3284,
      "Ver": 3285,
      "dra": 3286,
      "edi": 3287,
      "fy": 3288,
      "lar": 3289,
      "sol": 3290,
      "xm": 3291,
      "orter": 3292,
      "end": 3293,
      "eng": 3294,
      "2005": 3295,
      "ASH": 3296,
      "ado": 3297,
      ">,</": 3298,
      "lied": 3299,
      "condition": 3300,
      "495": 3301,
      "804": 3302,
      "808": 3303,
      "656": 3304,
      "574": 3305,
      "577": 3306,
      "people": 3307,
      "findings": 3308,
      "fee": 3309,
      "changes": 3310,
      "Steph": 3311,
      "transfer": 3312,
      "direct": 3313,
      "Insurance": 3314,
      "declar": 3315,
      "filing": 3316,
      "Background": 3317,
      "\"?": 3318,
      "419": 3319,
      "410": 3320,
      "585": 3321,
      "641": 3322,
      "642": 3323,
      "726": 3324,
      "810": 3325,
      "<?": 3326,
      "Cas": 3327,
      "Flor": 3328,
      "LIN": 3329,
      "basis": 3330,
      "judi": 3331,
      "sty": 3332,
      "tle": 3333,
      "tton": 3334,
      "wil": 3335,
      "assig": 3336,
      "tan": 3337,
      "defense": 3338,
      "resent": 3339,
      "terms": 3340,
      "contin": 3341,
      "self": 3342,
      "395": 3343,
      "851": 3344,
      "674": 3345,
      "676": 3346,
      "4498": 3347,
      "593": 3348,
      "572": 3349,
      "utf": 3350,
      "properly": 3351,
      "ensation": 3352,
      "Peter": 3353,
      "grand": 3354,
      "ducts": 3355,
      "material": 3356,
      "collectively": 3357,
      "electronic": 3358,
      "Hawai": 3359,
      "encoding": 3360,
      "JOSEPH": 3361,
      "xml": 3362,
      ",<": 3363,
      "330": 3364,
      "586": 3365,
      "627": 3366,
      "909": 3367,
      "Black": 3368,
      "CAS": 3369,
      "Gro": 3370,
      "OK": 3371,
      "Qu": 3372,
      "SH": 3373,
      "mir": 3374,
      "ny": 3375,
      "ool": 3376,
      "dina": 3377,
      "format": 3378,
      "conne": 3379,
      "contro": 3380,
      "report": 3381,
      "ORK": 3382,
      "606": 3383,
      "692": 3384,
      "858": 3385,
      "434": 3386,
      "4496": 3387,
      "soli": 3388,
      "loan": 3389,
      "pose": 3390,
      "publishing": 3391,
      "change": 3392,
      "vesti": 3393,
      "Mills": 3394,
      "printed": 3395,
      "probation": 3396,
      "third": 3397,
      "respect": 3398,
      "THOM": 3399,
      "fraud": 3400,
      "rendered": 3401,
      "421": 3402,
      "514": 3403,
      "812": 3404,
      "850": 3405,
      "940": 3406,
      "Ka": 3407,
      "Mi": 3408,
      "MON": 3409,
      "Title": 3410,
      "URI": 3411,
      "cago": 3412,
      "iew": 3413,
      "ring": 3414,
      "uel": 3415,
      "vari": 3416,
      "za": 3417,
      "teen": 3418,
      "deb": 3419,
      "role": 3420,
      "ANS": 3421,
      "rug": 3422,
      "repla": 3423,
      "602": 3424,
      "876": 3425,
      "877": 3426,
      "899": 3427,
      "acqu": 3428,
      "lot": 3429,
      "MED": 3430,
      "seeks": 3431,
      "good": 3432,
      "gence": 3433,
      "atory": 3434,
      "That": 3435,
      "expenses": 3436,
      "allowed": 3437,
      "Association": 3438,
      "partnership": 3439,
      "clients": 3440,
      "SUMMARY": 3441,
      "436": 3442,
      "539": 3443,
      "614": 3444,
      "649": 3445,
      "638": 3446,
      "636": 3447,
      "733": 3448,
      "885": 3449,
      "900": 3450,
      "967": 3451,
      "Fed": 3452,
      "GER": 3453,
      "IP": 3454,
      "Ray": 3455,
      "Val": 3456,
      "Water": 3457,
      "bile": 3458,
      "ports": 3459,
      "sur": 3460,
      "sear": 3461,
      "wal": 3462,
      "yers": 3463,
      "commission": 3464,
      "ofthe": 3465,
      "660": 3466,
      "382": 3467,
      "need": 3468,
      "vey": 3469,
      "396": 3470,
      "800": 3471,
      "554": 3472,
      "guar": 3473,
      "893": 3474,
      "894": 3475,
      "798": 3476,
      "681": 3477,
      "583": 3478,
      "Decisions": 3479,
      "trate": 3480,
      "Harry": 3481,
      "ansas": 3482,
      "nonprecedential": 3483,
      "considered": 3484,
      "referred": 3485,
      "America": 3486,
      "indict": 3487,
      "appropri": 3488,
      "unity": 3489,
      "AFFIR": 3490,
      "joint": 3491,
      "Labor": 3492,
      "Pursuant": 3493,
      "Additionally": 3494,
      "Illinois": 3495,
      "437": 3496,
      "526": 3497,
      "535": 3498,
      "569": 3499,
      "622": 3500,
      "648": 3501,
      "756": 3502,
      "824": 3503,
      "833": 3504,
      "837": 3505,
      "865": 3506,
      "930": 3507,
      "DIS": 3508,
      "Gar": 3509,
      "Han": 3510,
      "JUS": 3511,
      "NER": 3512,
      "Pr": 3513,
      "Ra": 3514,
      "UIS": 3515,
      "ized": 3516,
      "una": 3517,
      "vir": 3518,
      "dit": 3519,
      "ising": 3520,
      "url": 3521,
      "named": 3522,
      "alter": 3523,
      "encies": 3524,
      "months": 3525,
      "Inte": 3526,
      "make": 3527,
      "applic": 3528,
      "486": 3529,
      "6651": 3530,
      "705": 3531,
      "modi": 3532,
      "654": 3533,
      "tors": 3534,
      "598": 3535,
      "mann": 3536,
      "999": 3537,
      "curred": 3538,
      "corpor": 3539,
      "NOT": 3540,
      "burg": 3541,
      "River": 3542,
      "style": 3543,
      "mirror": 3544,
      "414": 3545,
      "520": 3546,
      "549": 3547,
      "532": 3548,
      "620": 3549,
      "679": 3550,
      "686": 3551,
      "712": 3552,
      "867": 3553,
      "BU": 3554,
      "But": 3555,
      "Land": 3556,
      "Mer": 3557,
      "Man": 3558,
      "XX": 3559,
      "bell": 3560,
      "kno": 3561,
      "rant": 3562,
      "ski": 3563,
      "eman": 3564,
      "super": 3565,
      "andum": 3566,
      "1011": 3567,
      "limin": 3568,
      "Indi": 3569,
      "denti": 3570,
      "663": 3571,
      "607": 3572,
      "872": 3573,
      "4495": 3574,
      "592": 3575,
      "597": 3576,
      "authority": 3577,
      "864": 3578,
      "582": 3579,
      "Robinson": 3580,
      "policy": 3581,
      "therefore": 3582,
      "GEOR": 3583,
      "gramm": 3584,
      "follows": 3585,
      "Chicago": 3586,
      "PORT": 3587,
      "Transfer": 3588,
      "Daniel": 3589,
      "separate": 3590,
      "website": 3591,
      "\"?><": 3592,
      "531": 3593,
      "567": 3594,
      "542": 3595,
      "625": 3596,
      "848": 3597,
      "988": 3598,
      "Cra": 3599,
      "Dor": 3600,
      "Doc": 3601,
      "GEN": 3602,
      "Miss": 3603,
      "TRI": 3604,
      "came": 3605,
      "jun": 3606,
      "prom": 3607,
      "sing": 3608,
      "istrate": 3609,
      "indent": 3610,
      "insufficient": 3611,
      "anorder": 3612,
      "RTH": 3613,
      "behalf": 3614,
      "dissent": 3615,
      "666": 3616,
      "698": 3617,
      "563": 3618,
      "dustri": 3619,
      "Anderson": 3620,
      "gram": 3621,
      "gency": 3622,
      "Services": 3623,
      "covery": 3624,
      "effect": 3625,
      "****************": 3626,
      "GRANT": 3627,
      "South": 3628,
      "Henry": 3629,
      "breach": 3630,
      "oung": 3631,
      "robbery": 3632,
      ".:": 3633,
      "427": 3634,
      "528": 3635,
      "530": 3636,
      "536": 3637,
      "630": 3638,
      "645": 3639,
      "914": 3640,
      "902": 3641,
      "974": 3642,
      "ATT": 3643,
      "Ca": 3644,
      "IM": 3645,
      "PRES": 3646,
      "PLA": 3647,
      "SLIP": 3648,
      "aff": 3649,
      "loss": 3650,
      "ral": 3651,
      "isting": 3652,
      "isnex": 3653,
      "assess": 3654,
      "member": 3655,
      "inv": 3656,
      "cour": 3657,
      "anord": 3658,
      "theopinions": 3659,
      "thelanguage": 3660,
      "courtdecisions": 3661,
      "remo": 3662,
      "ofcharge": 3663,
      "INGTON": 3664,
      "ctuation": 3665,
      "heel": 3666,
      "ithas": 3667,
      "700": 3668,
      "859": 3669,
      "897": 3670,
      "590": 3671,
      "prof": 3672,
      "564": 3673,
      "argues": 3674,
      "officialtext": 3675,
      "Anopinion": 3676,
      "require": 3677,
      "seehttps": 3678,
      "velop": 3679,
      "nonsubstantive": 3680,
      "precedentialpurposes": 3681,
      "regarding": 3682,
      "holder": 3683,
      "Thompson": 3684,
      "lexisnex": 3685,
      "involved": 3686,
      "asked": 3687,
      "wareports": 3688,
      "punctuation": 3689,
      "ASSOCIATION": 3690,
      "volumesof": 3691,
      "edits": 3692,
      "replaces": 3693,
      "JUSTICE": 3694,
      "grammar": 3695,
      "lexisnexis": 3696,
      "525": 3697,
      "587": 3698,
      "618": 3699,
      "639": 3700,
      "737": 3701,
      "788": 3702,
      "840": 3703,
      "910": 3704,
      "944": 3705,
      "917": 3706,
      "905": 3707,
      "901": 3708,
      "AC": 3709,
      "CAN": 3710,
      "Cent": 3711,
      "Gover": 3712,
      "Hu": 3713,
      "His": 3714,
      "KER": 3715,
      "Trustee": 3716,
      "bia": 3717,
      "don": 3718,
      "gas": 3719,
      "ight": 3720,
      "mission": 3721,
      "testa": 3722,
      "orted": 3723,
      "ordina": 3724,
      "cotic": 3725,
      "death": 3726,
      "Count": 3727,
      "enga": 3728,
      "mond": 3729,
      "posed": 3730,
      "produ": 3731,
      "4704": 3732,
      "owa": 3733,
      "owell": 3734,
      "809": 3735,
      "604": 3736,
      "4490": 3737,
      "862": 3738,
      "784": 3739,
      "services": 3740,
      "SOU": 3741,
      "special": 3742,
      "present": 3743,
      "EXECUTORS": 3744,
      "signed": 3745,
      "CHARLES": 3746,
      "address": 3747,
      "documents": 3748,
      "known": 3749,
      ".;": 3750,
      "619": 3751,
      "613": 3752,
      "689": 3753,
      "688": 3754,
      "723": 3755,
      "745": 3756,
      "780": 3757,
      "732": 3758,
      "821": 3759,
      "922": 3760,
      "935": 3761,
      "903": 3762,
      "Gi": 3763,
      "MS": 3764,
      "Mur": 3765,
      "Ron": 3766,
      "ible": 3767,
      "judicial": 3768,
      "tre": 3769,
      "mery": 3770,
      "resid": 3771,
      "4711": 3772,
      "itz": 3773,
      "Memor": 3774,
      "ALD": 3775,
      "493": 3776,
      "553": 3777,
      "704": 3778,
      "694": 3779,
      "892": 3780,
      "mobile": 3781,
      "677": 3782,
      "Dismiss": 3783,
      "argument": 3784,
      "Because": 3785,
      "post": 3786,
      "what": 3787,
      "denial": 3788,
      "Bros": 3789,
      "LOUIS": 3790,
      "relevant": 3791,
      "return": 3792,
      "requested": 3793,
      "including": 3794,
      "SERVI": 3795,
      "647": 3796,
      "631": 3797,
      "729": 3798,
      "929": 3799,
      "904": 3800,
      "Ag": 3801,
      "Air": 3802,
      "DC": 3803,
      "Hel": 3804,
      "Iowa": 3805,
      "[<": 3806,
      "ba": 3807,
      "ita": 3808,
      "ian": 3809,
      "vin": 3810,
      "wart": 3811,
      "organ": 3812,
      "ares": 3813,
      "sued": 3814,
      "ular": 3815,
      "open": 3816,
      "emphas": 3817,
      "conclusion": 3818,
      "high": 3819,
      "owned": 3820,
      "875": 3821,
      "853": 3822,
      "854": 3823,
      "797": 3824,
      "799": 3825,
      "exam": 3826,
      "Second": 3827,
      "571": 3828,
      "882": 3829,
      "AD2d": 3830,
      "ipment": 3831,
      "Harris": 3832,
      "dismissing": 3833,
      "Lee": 3834,
      "Stat": 3835,
      "holding": 3836,
      "Compl": 3837,
      "Morris": 3838,
      "officers": 3839,
      "executed": 3840,
      "provides": 3841,
      "Lumber": 3842,
      "════": 3843,
      "closure": 3844,
      "Amend": 3845,
      "indictment": 3846,
      "\"),": 3847,
      "626": 3848,
      "643": 3849,
      "710": 3850,
      "747": 3851,
      "728": 3852,
      "826": 3853,
      "825": 3854,
      "818": 3855,
      "845": 3856,
      "841": 3857,
      "949": 3858,
      "955": 3859,
      "985": 3860,
      "Dire": 3861,
      "Tri": 3862,
      "Will": 3863,
      "YORK": 3864,
      "bility": 3865,
      "nel": 3866,
      "sold": 3867,
      "wai": 3868,
      "iner": 3869,
      "thy": 3870,
      "dell": 3871,
      "nit": 3872,
      "1002": 3873,
      "stor": 3874,
      "conclu": 3875,
      "They": 3876,
      "661": 3877,
      "____________": 3878,
      "4705": 3879,
      "883": 3880,
      "Reg": 3881,
      "Rey": 3882,
      "Auto": 3883,
      "penal": 3884,
      "complain": 3885,
      "Counsel": 3886,
      "stitution": 3887,
      "Francis": 3888,
      "Denied": 3889,
      "Home": 3890,
      "Loan": 3891,
      "custo": 3892,
      "purchase": 3893,
      "Phillip": 3894,
      "puty": 3895,
      "narcotic": 3896,
      "WOOD": 3897,
      "Realty": 3898,
      "Veter": 3899,
      "Employ": 3900,
      ")</": 3901,
      "516": 3902,
      "644": 3903,
      "637": 3904,
      "787": 3905,
      "916": 3906,
      "937": 3907,
      "965": 3908,
      "Ala": 3909,
      "Bus": 3910,
      "Cler": 3911,
      "Docu": 3912,
      "Equ": 3913,
      "GRE": 3914,
      "Mass": 3915,
      "RIS": 3916,
      "Sav": 3917,
      "Te": 3918,
      "care": 3919,
      "fund": 3920,
      "kin": 3921,
      "run": 3922,
      "united": 3923,
      "you": 3924,
      "thur": 3925,
      "nant": 3926,
      "cide": 3927,
      "circu": 3928,
      "circuit": 3929,
      "offen": 3930,
      "REY": 3931,
      "ely": 3932,
      "admitted": 3933,
      "seq": 3934,
      "sex": 3935,
      "lying": 3936,
      "558": 3937,
      "790": 3938,
      "672": 3939,
      "888": 3940,
      "763": 3941,
      "Superior": 3942,
      "plead": 3943,
      "common": 3944,
      "intent": 3945,
      "standing": 3946,
      "principal": 3947,
      "Allen": 3948,
      "returned": 3949,
      "constitutional": 3950,
      "however": 3951,
      "FIND": 3952,
      "Rules": 3953,
      "search": 3954,
      "GEORGE": 3955,
      "719": 3956,
      "727": 3957,
      "718": 3958,
      "766": 3959,
      "785": 3960,
      "741": 3961,
      "813": 3962,
      "830": 3963,
      "815": 3964,
      "947": 3965,
      "924": 3966,
      "CB": 3967,
      "Del": 3968,
      "Fair": 3969,
      "Gold": 3970,
      "King": 3971,
      "Ros": 3972,
      "Work": 3973,
      "cation": 3974,
      "jo": 3975,
      "water": 3976,
      "erick": 3977,
      "tana": 3978,
      "nage": 3979,
      "ang": 3980,
      "enforce": 3981,
      "resul": 3982,
      "nol": 3983,
      "stip": 3984,
      "concluded": 3985,
      "ANA": 3986,
      "ray": 3987,
      "sell": 3988,
      "4703": 3989,
      "805": 3990,
      "609": 3991,
      "652": 3992,
      "653": 3993,
      "abuse": 3994,
      "accident": 3995,
      "ISTRA": 3996,
      "Motor": 3997,
      "Hart": 3998,
      "Arthur": 3999,
      "DAVID": 4000,
      "questions": 4001,
      "references": 4002,
      "Complaint": 4003,
      "rently": 4004,
      "Public": 4005,
      "Northern": 4006,
      "violated": 4007,
      "Stephen": 4008,
      "AFFIRMED": 4009,
      "PLAIN": 4010,
      "Clerk": 4011,
      "circum": 4012,
      "stipul": 4013,
      "548": 4014,
      "632": 4015,
      "738": 4016,
      "789": 4017,
      "820": 4018,
      "827": 4019,
      "869": 4020,
      "933": 4021,
      "942": 4022,
      "Camp": 4023,
      "Cha": 4024,
      "Dr": 4025,
      "Ko": 4026,
      "Lev": 4027,
      "SC": 4028,
      "Vir": 4029,
      "Whi": 4030,
      "bal": 4031,
      "ective": 4032,
      "gy": 4033,
      "net": 4034,
      "mean": 4035,
      "injur": 4036,
      "cash": 4037,
      "another": 4038,
      "formed": 4039,
      "courts": 4040,
      "caseopinion": 4041,
      "parti": 4042,
      "ERAL": 4043,
      "OFFI": 4044,
      "rupt": 4045,
      "1997": 4046,
      "4708": 4047,
      "vert": 4048,
      "represented": 4049,
      "703": 4050,
      "707": 4051,
      "fair": 4052,
      "Roy": 4053,
      "DEF": 4054,
      "prelimin": 4055,
      "purpose": 4056,
      "Report": 4057,
      "Brook": 4058,
      "MOTION": 4059,
      "period": 4060,
      "----------------": 4061,
      "Southern": 4062,
      "Brad": 4063,
      "additional": 4064,
      "UGH": 4065,
      "deficiency": 4066,
      "appointed": 4067,
      "concerning": 4068,
      "negligence": 4069,
      "Criminal": 4070,
      "provide": 4071,
      "connection": 4072,
      "solidated": 4073,
      "appropriate": 4074,
      "Document": 4075,
      "615": 4076,
      "725": 4077,
      "844": 4078,
      "836": 4079,
      "943": 4080,
      "Bl": 4081,
      "CY": 4082,
      "Cer": 4083,
      "Four": 4084,
      "Mut": 4085,
      "MIL": 4086,
      "Part": 4087,
      "RS": 4088,
      "SS": 4089,
      "WES": 4090,
      "xi": 4091,
      "dec": 4092,
      "courtsumm": 4093,
      "town": 4094,
      "mong": 4095,
      "mont": 4096,
      "adop": 4097,
      "liable": 4098,
      "liability": 4099,
      "ALL": 4100,
      "gate": 4101,
      "CHER": 4102,
      "801": 4103,
      "697": 4104,
      "TIFF": 4105,
      "796": 4106,
      "651": 4107,
      "658": 4108,
      "Review": 4109,
      "4499": 4110,
      "594": 4111,
      "ably": 4112,
      "range": 4113,
      "4484": 4114,
      "782": 4115,
      "754": 4116,
      "581": 4117,
      "FORD": 4118,
      "Atty": 4119,
      "capital": 4120,
      "McC": 4121,
      "impos": 4122,
      "employees": 4123,
      "pending": 4124,
      "Medi": 4125,
      "Police": 4126,
      "Wood": 4127,
      "place": 4128,
      "given": 4129,
      "THOMAS": 4130,
      "Indiana": 4131,
      "preliminary": 4132,
      "588": 4133,
      "629": 4134,
      "635": 4135,
      "755": 4136,
      "849": 4137,
      "923": 4138,
      "932": 4139,
      "A7": 4140,
      "Ab": 4141,
      "Dou": 4142,
      "FBI": 4143,
      "Ger": 4144,
      "HON": 4145,
      "HAM": 4146,
      "Hote": 4147,
      "Sal": 4148,
      "Thi": 4149,
      "UAL": 4150,
      "VA": 4151,
      "_cite": 4152,
      "bs": 4153,
      "dge": 4154,
      "drug": 4155,
      "ky": 4156,
      "power": 4157,
      "erson": 4158,
      "investi": 4159,
      "deed": 4160,
      "Commer": 4161,
      "case_cite": 4162,
      "rea": 4163,
      "recommen": 4164,
      "check": 4165,
      "atter": 4166,
      "Civ": 4167,
      "ANCE": 4168,
      "discus": 4169,
      "discovery": 4170,
      "803": 4171,
      "691": 4172,
      "863": 4173,
      "775": 4174,
      "acce": 4175,
      "682": 4176,
      "actions": 4177,
      "ADMIN": 4178,
      "market": 4179,
      "goti": 4180,
      "dismissal": 4181,
      "FORE": 4182,
      "Penal": 4183,
      "burn": 4184,
      "stances": 4185,
      "dedup": 4186,
      "AFTR": 4187,
      "Gray": 4188,
      "individually": 4189,
      "................................": 4190,
      "PUBL": 4191,
      "Guar": 4192,
      "Special": 4193,
      "government": 4194,
      "Christ": 4195,
      "ractice": 4196,
      "Florida": 4197,
      "Hotel": 4198,
      "616": 4199,
      "634": 4200,
      "720": 4201,
      "716": 4202,
      "715": 4203,
      "748": 4204,
      "736": 4205,
      "779": 4206,
      "855": 4207,
      "915": 4208,
      "921": 4209,
      "952": 4210,
      "Bell": 4211,
      "Ry": 4212,
      "Sher": 4213,
      "Scott": 4214,
      "Wol": 4215,
      "WARD": 4216,
      "ZA": 4217,
      "fun": 4218,
      "hand": 4219,
      "ires": 4220,
      "mari": 4221,
      "nn": 4222,
      "sion": 4223,
      "met": 4224,
      "ines": 4225,
      "revision": 4226,
      "ense": 4227,
      "ili": 4228,
      "suc": 4229,
      "4487": 4230,
      "Deputy": 4231,
      "Industri": 4232,
      "conf": 4233,
      "ants": 4234,
      "1999": 4235,
      "victi": 4236,
      "791": 4237,
      "dingly": 4238,
      "Section": 4239,
      "4474": 4240,
      "771": 4241,
      "783": 4242,
      "oney": 4243,
      "roup": 4244,
      "reference": 4245,
      "letter": 4246,
      "When": 4247,
      "correct": 4248,
      "Elect": 4249,
      "sustained": 4250,
      "continu": 4251,
      "Central": 4252,
      "White": 4253,
      "caseopinionby": 4254,
      "ruptcy": 4255,
      "PUBLISH": 4256,
      "623": 4257,
      "6501": 4258,
      "714": 4259,
      "765": 4260,
      "829": 4261,
      "912": 4262,
      "918": 4263,
      "957": 4264,
      "Av": 4265,
      "Ell": 4266,
      "Hall": 4267,
      "Manu": 4268,
      "Ran": 4269,
      "Rem": 4270,
      "Rel": 4271,
      "Spr": 4272,
      "SMI": 4273,
      "Wes": 4274,
      "WASH": 4275,
      "bin": 4276,
      "b10": 4277,
      "san": 4278,
      "zer": 4279,
      "divor": 4280,
      "clear": 4281,
      "injun": 4282,
      "orable": 4283,
      "\">“": 4284,
      "Cotton": 4285,
      "INA": 4286,
      "stone": 4287,
      "ORNEY": 4288,
      "vidence": 4289,
      "Boy": 4290,
      "sons": 4291,
      "using": 4292,
      "ARY": 4293,
      "ANDER": 4294,
      "father": 4295,
      "46969": 4296,
      "LLP": 4297,
      "772": 4298,
      "CED": 4299,
      "Prote": 4300,
      "caused": 4301,
      "alleges": 4302,
      "payments": 4303,
      "Although": 4304,
      "building": 4305,
      "Executrix": 4306,
      "Claim": 4307,
      "Walter": 4308,
      "portion": 4309,
      "Mrs": 4310,
      "Parker": 4311,
      "ginia": 4312,
      "DENY": 4313,
      "limited": 4314,
      "associ": 4315,
      "Adams": 4316,
      "various": 4317,
      "PLAINTIFF": 4318,
      "SMITH": 4319,
      "711": 4320,
      "819": 4321,
      "822": 4322,
      "843": 4323,
      "834": 4324,
      "920": 4325,
      "927": 4326,
      "931": 4327,
      "971": 4328,
      "964": 4329,
      "Agency": 4330,
      "Fis": 4331,
      "Family": 4332,
      "Hos": 4333,
      "Jor": 4334,
      "Kent": 4335,
      "LAS": 4336,
      "Lew": 4337,
      "RU": 4338,
      "UCTION": 4339,
      "bond": 4340,
      "either": 4341,
      "gs": 4342,
      "hard": 4343,
      "mfg": 4344,
      "panel": 4345,
      "oral": 4346,
      "take": 4347,
      "tative": 4348,
      "roll": 4349,
      "elle": 4350,
      "nie": 4351,
      "leave": 4352,
      "1027": 4353,
      "1080": 4354,
      "1000": 4355,
      "lins": 4356,
      "1347": 4357,
      "criminal": 4358,
      "secur": 4359,
      "light": 4360,
      "664": 4361,
      "603": 4362,
      "657": 4363,
      "4698": 4364,
      "44825": 4365,
      "acti": 4366,
      "office": 4367,
      "find": 4368,
      "764": 4369,
      "fety": 4370,
      "facturing": 4371,
      "LAW": 4372,
      "BEFORE": 4373,
      "attorneys": 4374,
      "Calif": 4375,
      "mately": 4376,
      "IGAN": 4377,
      "requests": 4378,
      "SECURI": 4379,
      "Honorable": 4380,
      "indicated": 4381,
      "Prosecuting": 4382,
      "TRUSTEE": 4383,
      "Columbia": 4384,
      "benefits": 4385,
      "Transferee": 4386,
      "Government": 4387,
      "Phillips": 4388,
      "pleaded": 4389,
      "nagement": 4390,
      "nolds": 4391,
      "740": 4392,
      "769": 4393,
      "823": 4394,
      "842": 4395,
      "832": 4396,
      "969": 4397,
      "956": 4398,
      "CS": 4399,
      "CER": 4400,
      "ELE": 4401,
      "Ir": 4402,
      "ICE": 4403,
      "LT": 4404,
      "RC": 4405,
      "Rus": 4406,
      "TTER": 4407,
      "Town": 4408,
      "among": 4409,
      "bon": 4410,
      "hen": 4411,
      "ited": 4412,
      "lass": 4413,
      "low": 4414,
      "title": 4415,
      "trustee": 4416,
      "utory": 4417,
      "ister": 4418,
      "urch": 4419,
      "tha": 4420,
      "coal": 4421,
      "civil": 4422,
      "department": 4423,
      "reverse": 4424,
      "etro": 4425,
      "room": 4426,
      "lease": 4427,
      "1001": 4428,
      "toge": 4429,
      "shares": 4430,
      "unlaw": 4431,
      "itig": 4432,
      "crime": 4433,
      "lay": 4434,
      "lier": 4435,
      "ongress": 4436,
      "TEX": 4437,
      "ORDE": 4438,
      "802": 4439,
      "873": 4440,
      "671": 4441,
      "ARAN": 4442,
      "599": 4443,
      "683": 4444,
      "comple": 4445,
      "761": 4446,
      "redu": 4447,
      "taining": 4448,
      "Argu": 4449,
      "employee": 4450,
      "firm": 4451,
      "Lawrence": 4452,
      "Publish": 4453,
      "Administrative": 4454,
      "Executors": 4455,
      "ughter": 4456,
      "vacate": 4457,
      "remanded": 4458,
      "attach": 4459,
      "Ruth": 4460,
      "construction": 4461,
      "Frederick": 4462,
      "reversed": 4463,
      "improper": 4464,
      "ATTORNEY": 4465,
      "Jordan": 4466,
      "together": 4467,
      "814": 4468,
      "938": 4469,
      "977": 4470,
      "Cross": 4471,
      "Eng": 4472,
      "Gr": 4473,
      "Kin": 4474,
      "Mal": 4475,
      "Mari": 4476,
      "Mid": 4477,
      "Os": 4478,
      "Sar": 4479,
      "Sam": 4480,
      "VIL": 4481,
      "WAL": 4482,
      "Young": 4483,
      "doc": 4484,
      "ek": 4485,
      "gations": 4486,
      "know": 4487,
      "near": 4488,
      "pute": 4489,
      "say": 4490,
      "sales": 4491,
      "tw": 4492,
      "wing": 4493,
      "division": 4494,
      "ino": 4495,
      "included": 4496,
      "ede": 4497,
      "cia": 4498,
      "theft": 4499,
      "read": 4500,
      "LEE": 4501,
      "result": 4502,
      "1067": 4503,
      "took": 4504,
      "itts": 4505,
      "USA": 4506,
      "Def": 4507,
      "ALTH": 4508,
      "RICH": 4509,
      "represent": 4510,
      "eller": 4511,
      "tried": 4512,
      "699": 4513,
      "884": 4514,
      "manda": 4515,
      "agreed": 4516,
      "995": 4517,
      "license": 4518,
      "Ford": 4519,
      "priv": 4520,
      "credi": 4521,
      "ify": 4522,
      "pendent": 4523,
      "stockholder": 4524,
      "rustees": 4525,
      "______________________": 4526,
      "Standard": 4527,
      "WELL": 4528,
      "ABLE": 4529,
      "exception": 4530,
      "distribution": 4531,
      "objection": 4532,
      "Accor": 4533,
      "MICHIGAN": 4534,
      "automobile": 4535,
      "remaining": 4536,
      "viron": 4537,
      "Memorandum": 4538,
      "victim": 4539,
      "WASHINGTON": 4540,
      ").</": 4541,
      ".%": 4542,
      "685": 4543,
      "816": 4544,
      "919": 4545,
      "980": 4546,
      "906": 4547,
      "968": 4548,
      "954": 4549,
      "951": 4550,
      "Alex": 4551,
      "Bon": 4552,
      "Bal": 4553,
      "C2": 4554,
      "Can": 4555,
      "Fer": 4556,
      "President": 4557,
      "Rail": 4558,
      "WH": 4559,
      "Wright": 4560,
      "Wheel": 4561,
      "bill": 4562,
      "dor": 4563,
      "gent": 4564,
      "gins": 4565,
      "wa": 4566,
      "mel": 4567,
      "thing": 4568,
      "edu": 4569,
      "defin": 4570,
      "rests": 4571,
      "undation": 4572,
      "1111": 4573,
      "tiz": 4574,
      "contained": 4575,
      "ANN": 4576,
      "posit": 4577,
      "47037": 4578,
      "tribu": 4579,
      "THIS": 4580,
      "890": 4581,
      "exer": 4582,
      "994": 4583,
      "Contract": 4584,
      "duty": 4585,
      "Moore": 4586,
      "statement": 4587,
      "heard": 4588,
      "Caro": 4589,
      "OLD": 4590,
      "ollar": 4591,
      "KKKK": 4592,
      "CASE": 4593,
      "engaged": 4594,
      "Veteran": 4595,
      "DEFEND": 4596,
      "DENYING": 4597,
      "624": 4598,
      "687": 4599,
      "743": 4600,
      "839": 4601,
      "925": 4602,
      "960": 4603,
      "959": 4604,
      ">]": 4605,
      "AU": 4606,
      "Ash": 4607,
      "Ave": 4608,
      "Bi": 4609,
      "Cro": 4610,
      "Greg": 4611,
      "IF": 4612,
      "Les": 4613,
      "Long": 4614,
      "LAN": 4615,
      "NI": 4616,
      "PC": 4617,
      "PENN": 4618,
      "Stor": 4619,
      "Tur": 4620,
      "Ten": 4621,
      "VES": 4622,
      "fri": 4623,
      "hour": 4624,
      "ka": 4625,
      "lock": 4626,
      "mall": 4627,
      "smith": 4628,
      "wealth": 4629,
      "died": 4630,
      "tele": 4631,
      "inf": 4632,
      "initi": 4633,
      "cited": 4634,
      "1256": 4635,
      "1082": 4636,
      "1092": 4637,
      "unk": 4638,
      "4717": 4639,
      "1158": 4640,
      "store": 4641,
      "crimination": 4642,
      "Defen": 4643,
      "percent": 4644,
      "896": 4645,
      "898": 4646,
      "Sec": 4647,
      "596": 4648,
      "576": 4649,
      "886": 4650,
      "ROM": 4651,
      "1108": 4652,
      "conspi": 4653,
      "timely": 4654,
      "obli": 4655,
      "Broad": 4656,
      "Max": 4657,
      "express": 4658,
      "Farmers": 4659,
      "APPELLANT": 4660,
      "removal": 4661,
      "Ronald": 4662,
      "Virginia": 4663,
      "decree": 4664,
      "Doug": 4665,
      "DEFENDANT": 4666,
      ".),": 4667,
      "739": 4668,
      "928": 4669,
      "970": 4670,
      "981": 4671,
      "Bru": 4672,
      "Bol": 4673,
      "BOR": 4674,
      "Cu": 4675,
      "Congress": 4676,
      "Ev": 4677,
      "EAS": 4678,
      "HT": 4679,
      "Kar": 4680,
      "Kansas": 4681,
      "Mach": 4682,
      "SYL": 4683,
      "Tro": 4684,
      "Uni": 4685,
      "Wel": 4686,
      "bene": 4687,
      "gers": 4688,
      "identi": 4689,
      "wid": 4690,
      "went": 4691,
      "close": 4692,
      "nan": 4693,
      "citiz": 4694,
      "Cook": 4695,
      "idney": 4696,
      "1025": 4697,
      "1034": 4698,
      "CITY": 4699,
      "ticle": 4700,
      "USE": 4701,
      "Inde": 4702,
      "dispute": 4703,
      "rail": 4704,
      "Respondents": 4705,
      "exten": 4706,
      "ranch": 4707,
      "46965": 4708,
      "igan": 4709,
      "brings": 4710,
      "erald": 4711,
      "Constitution": 4712,
      "requires": 4713,
      "poli": 4714,
      "created": 4715,
      "versity": 4716,
      "obtained": 4717,
      "venile": 4718,
      "burgh": 4719,
      "employed": 4720,
      "1192": 4721,
      "amounts": 4722,
      "Officer": 4723,
      "substantial": 4724,
      "grounds": 4725,
      "explain": 4726,
      "necessary": 4727,
      "contention": 4728,
      "certification": 4729,
      "Howard": 4730,
      "prosecution": 4731,
      "committed": 4732,
      "raised": 4733,
      "called": 4734,
      "Amendment": 4735,
      "funds": 4736,
      "FINDINGS": 4737,
      "744": 4738,
      "717": 4739,
      "786": 4740,
      "880": 4741,
      "870": 4742,
      "946": 4743,
      "966": 4744,
      "975": 4745,
      "962": 4746,
      "Fire": 4747,
      "GU": 4748,
      "JON": 4749,
      "Jen": 4750,
      "LU": 4751,
      "PR": 4752,
      "Power": 4753,
      "Two": 4754,
      "Web": 4755,
      "Wife": 4756,
      "aver": 4757,
      "ault": 4758,
      "hon": 4759,
      "ograph": 4760,
      "vit": 4761,
      "zz": 4762,
      "differ": 4763,
      "assets": 4764,
      "tar": 4765,
      "dar": 4766,
      "dance": 4767,
      "nation": 4768,
      "rell": 4769,
      "1268": 4770,
      "1040": 4771,
      "orton": 4772,
      "2003": 4773,
      "attemp": 4774,
      "strom": 4775,
      "security": 4776,
      "Decl": 4777,
      "lie": 4778,
      "proof": 4779,
      "lyn": 4780,
      "ause": 4781,
      "permit": 4782,
      "793": 4783,
      "4475": 4784,
      "44746": 4785,
      "ameri": 4786,
      "bring": 4787,
      "lawsuit": 4788,
      "Products": 4789,
      "Ann": 4790,
      "1123": 4791,
      "taxes": 4792,
      "MART": 4793,
      "formal": 4794,
      "loyd": 4795,
      "grav": 4796,
      "RAY": 4797,
      "atories": 4798,
      "Carl": 4799,
      "Pacific": 4800,
      "stance": 4801,
      "Michigan": 4802,
      "determine": 4803,
      "Metal": 4804,
      "prescri": 4805,
      "Stanley": 4806,
      "green": 4807,
      "administrative": 4808,
      "accordance": 4809,
      "AMERICA": 4810,
      "Facts": 4811,
      "Jaco": 4812,
      "william": 4813,
      "SOUTHER": 4814,
      "organiz": 4815,
      "narcotics": 4816,
      "ADMINISTRA": 4817,
      "divorce": 4818,
      "PENNSYL": 4819,
      "conspira": 4820,
      "Evans": 4821,
      "PENNSYLVAN": 4822,
      ".:</": 4823,
      "746": 4824,
      "762": 4825,
      "941": 4826,
      "963": 4827,
      "AH": 4828,
      "AEL": 4829,
      "BRI": 4830,
      "CRE": 4831,
      "Des": 4832,
      "Fe": 4833,
      "Fried": 4834,
      "Gri": 4835,
      "Hay": 4836,
      "Hugh": 4837,
      "Ill": 4838,
      "JAN": 4839,
      "LC": 4840,
      "Mac": 4841,
      "Nich": 4842,
      "TOR": 4843,
      "WY": 4844,
      "ather": 4845,
      "cise": 4846,
      "justice": 4847,
      "lph": 4848,
      "nish": 4849,
      "py": 4850,
      "saw": 4851,
      "ises": 4852,
      "ining": 4853,
      "arrest": 4854,
      "1919": 4855,
      "chard": 4856,
      "eto": 4857,
      "riage": 4858,
      "ids": 4859,
      "ENS": 4860,
      "ope": 4861,
      "elig": 4862,
      "left": 4863,
      "1020": 4864,
      "1045": 4865,
      "1031": 4866,
      "ffic": 4867,
      "proced": 4868,
      "event": 4869,
      "ols": 4870,
      "hib": 4871,
      "4707": 4872,
      "illing": 4873,
      "withheld": 4874,
      "motor": 4875,
      "minor": 4876,
      "hotel": 4877,
      "584": 4878,
      "compensation": 4879,
      "APPEARAN": 4880,
      "Atlas": 4881,
      "Beach": 4882,
      "1129": 4883,
      "charges": 4884,
      "consis": 4885,
      "Albert": 4886,
      "reasonably": 4887,
      "imprison": 4888,
      "above": 4889,
      ".”</": 4890,
      "Laur": 4891,
      "trodu": 4892,
      "deduction": 4893,
      "bara": 4894,
      "relation": 4895,
      "release": 4896,
      "appears": 4897,
      "commenced": 4898,
      "purchased": 4899,
      "challenges": 4900,
      "Ern": 4901,
      "engine": 4902,
      "debt": 4903,
      "course": 4904,
      "Director": 4905,
      "penalty": 4906,
      "circumstances": 4907,
      "vertising": 4908,
      "Lewis": 4909,
      "ORDERED": 4910,
      "Argued": 4911,
      "vironmental": 4912,
      "conspiracy": 4913,
      "APPEARANCES": 4914,
      "imprisonment": 4915,
      "/?": 4916,
      "4500": 4917,
      "866": 4918,
      "987": 4919,
      "979": 4920,
      "908": 4921,
      "BNA": 4922,
      "Eas": 4923,
      "Ear": 4924,
      "Ent": 4925,
      "Fla": 4926,
      "GOR": 4927,
      "Glen": 4928,
      "Hor": 4929,
      "HEN": 4930,
      "ID": 4931,
      "KO": 4932,
      "Kel": 4933,
      "MBER": 4934,
      "Opp": 4935,
      "Pan": 4936,
      "Pet": 4937,
      "RON": 4938,
      "Ross": 4939,
      "Shi": 4940,
      "affi": 4941,
      "cul": 4942,
      "dollar": 4943,
      "gue": 4944,
      "gross": 4945,
      "rating": 4946,
      "sto": 4947,
      "uper": 4948,
      "ona": 4949,
      "introdu": 4950,
      "tali": 4951,
      "compan": 4952,
      "ciary": 4953,
      "eni": 4954,
      "1240": 4955,
      "ENCE": 4956,
      "uly": 4957,
      "elson": 4958,
      "1016": 4959,
      "1032": 4960,
      "1177": 4961,
      "CIA": 4962,
      "1383": 4963,
      "labor": 4964,
      "lies": 4965,
      "RIX": 4966,
      "bott": 4967,
      "augh": 4968,
      "807": 4969,
      "856": 4970,
      "cking": 4971,
      "44740": 4972,
      "LLY": 4973,
      "aggrav": 4974,
      "DECIS": 4975,
      "compe": 4976,
      "Prob": 4977,
      "ineff": 4978,
      "1106": 4979,
      "FIF": 4980,
      "SEY": 4981,
      "pie": 4982,
      "MARK": 4983,
      "violations": 4984,
      "Barbara": 4985,
      "residence": 4986,
      "south": 4987,
      "Richardson": 4988,
      "probate": 4989,
      "released": 4990,
      "ylvan": 4991,
      "concurring": 4992,
      "Baker": 4993,
      "generally": 4994,
      "Jersey": 4995,
      "MICHAEL": 4996,
      "Interi": 4997,
      "dissenting": 4998,
      "offenses": 4999,
      "sexual": 5000,
      "RICHARD": 5001,
      "SOUTHERN": 5002,
      "PENNSYLVANIA": 5003,
      "DECISION": 5004,
      "768": 5005,
      "847": 5006,
      "817": 5007,
      "Bay": 5008,
      "CM": 5009,
      "Evidence": 5010,
      "GIN": 5011,
      "Gary": 5012,
      "HS": 5013,
      "JER": 5014,
      "Lar": 5015,
      "MY": 5016,
      "Na": 5017,
      "Pal": 5018,
      "RAL": 5019,
      "STON": 5020,
      "UP": 5021,
      "Wis": 5022,
      "With": 5023,
      "WIL": 5024,
      "fal": 5025,
      "imm": 5026,
      "ipp": 5027,
      "lton": 5028,
      "plan": 5029,
      "wor": 5030,
      "paper": 5031,
      "parole": 5032,
      "tee": 5033,
      "cler": 5034,
      "ured": 5035,
      "init": 5036,
      "injury": 5037,
      "thony": 5038,
      "deceased": 5039,
      "develop": 5040,
      "offer": 5041,
      "cel": 5042,
      "INTR": 5043,
      "occurred": 5044,
      "1099": 5045,
      "partic": 5046,
      "1136": 5047,
      "1172": 5048,
      "ODUCTION": 5049,
      "seven": 5050,
      "ullen": 5051,
      "consolidated": 5052,
      "beas": 5053,
      "beth": 5054,
      "rate": 5055,
      "book": 5056,
      "applied": 5057,
      "ows": 5058,
      "ells": 5059,
      "cky": 5060,
      "expen": 5061,
      "4497": 5062,
      "cannot": 5063,
      "997": 5064,
      "respondents": 5065,
      "Former": 5066,
      "Rober": 5067,
      "arker": 5068,
      "seek": 5069,
      "Leg": 5070,
      "nings": 5071,
      "Stein": 5072,
      "SUB": 5073,
      "FRANK": 5074,
      "residing": 5075,
      "working": 5076,
      "statutory": 5077,
      "WAY": 5078,
      "nsylvan": 5079,
      "relating": 5080,
      "driving": 5081,
      "leton": 5082,
      "Associates": 5083,
      "challenge": 5084,
      "corrected": 5085,
      "adelph": 5086,
      "Patrick": 5087,
      "BROWN": 5088,
      "juvenile": 5089,
      "Jefferson": 5090,
      "conditions": 5091,
      "acquired": 5092,
      "applicable": 5093,
      "GENERAL": 5094,
      "assessment": 5095,
      "Helen": 5096,
      "Reynolds": 5097,
      "enforcement": 5098,
      "Fourth": 5099,
      "ximately": 5100,
      "adopted": 5101,
      "accep": 5102,
      "success": 5103,
      "itigation": 5104,
      "Defender": 5105,
      "initial": 5106,
      "INTRODUCTION": 5107,
      "nsylvania": 5108,
      "1197": 5109,
      "1199": 5110,
      "735": 5111,
      "889": 5112,
      "984": 5113,
      "Bow": 5114,
      "CUS": 5115,
      "FAR": 5116,
      "FROM": 5117,
      "GAN": 5118,
      "Mos": 5119,
      "PI": 5120,
      "PAR": 5121,
      "Plan": 5122,
      "QU": 5123,
      "Vi": 5124,
      "cru": 5125,
      "fron": 5126,
      "family": 5127,
      "give": 5128,
      "hart": 5129,
      "mu": 5130,
      "ped": 5131,
      "ution": 5132,
      "assault": 5133,
      "ert": 5134,
      "tho": 5135,
      "arbit": 5136,
      "cip": 5137,
      "decide": 5138,
      "rehearing": 5139,
      "1225": 5140,
      "1222": 5141,
      "REPORT": 5142,
      "night": 5143,
      "1046": 5144,
      "1005": 5145,
      "1003": 5146,
      "total": 5147,
      "nold": 5148,
      "1114": 5149,
      "1180": 5150,
      "1187": 5151,
      "refused": 5152,
      "contribu": 5153,
      "mag": 5154,
      "6662": 5155,
      "versus": 5156,
      "quest": 5157,
      "extent": 5158,
      "International": 5159,
      "777": 5160,
      "UNDER": 5161,
      "notes": 5162,
      "996": 5163,
      "998": 5164,
      "foreclosure": 5165,
      "kee": 5166,
      "key": 5167,
      "aving": 5168,
      "sible": 5169,
      "point": 5170,
      "Wilson": 5171,
      "iley": 5172,
      "Harold": 5173,
      "Attorneys": 5174,
      "Star": 5175,
      "DOCK": 5176,
      "School": 5177,
      "Official": 5178,
      "Georg": 5179,
      "ruled": 5180,
      "Walla": 5181,
      "directed": 5182,
      "EXECUTRIX": 5183,
      "failing": 5184,
      "ordon": 5185,
      "owners": 5186,
      "HERN": 5187,
      "garet": 5188,
      "established": 5189,
      "Andrew": 5190,
      "warrant": 5191,
      "Island": 5192,
      "limitation": 5193,
      "Prosecutor": 5194,
      "AMERICAN": 5195,
      "Magistrate": 5196,
      "located": 5197,
      "nyder": 5198,
      "guardian": 5199,
      "wartz": 5200,
      "custody": 5201,
      "doctr": 5202,
      "american": 5203,
      "eligible": 5204,
      "adelphia": 5205,
      "767": 5206,
      "936": 5207,
      "953": 5208,
      "Bry": 5209,
      "Eli": 5210,
      "ELL": 5211,
      "Gil": 5212,
      "Gordon": 5213,
      "Hard": 5214,
      "Ham": 5215,
      "KEN": 5216,
      "Kle": 5217,
      "Myers": 5218,
      "ND": 5219,
      "Nelson": 5220,
      "Oak": 5221,
      "Sk": 5222,
      "Sti": 5223,
      "Sons": 5224,
      "VIN": 5225,
      "bi": 5226,
      "ban": 5227,
      "h2": 5228,
      "ii": 5229,
      "jam": 5230,
      "que": 5231,
      "rin": 5232,
      "sat": 5233,
      "vent": 5234,
      "ye": 5235,
      "parent": 5236,
      "mero": 5237,
      "arm": 5238,
      "1918": 5239,
      "TAL": 5240,
      "rested": 5241,
      "resol": 5242,
      "superior": 5243,
      "1201": 5244,
      "1234": 5245,
      "opher": 5246,
      "1028": 5247,
      "1061": 5248,
      "novo": 5249,
      "stall": 5250,
      "termin": 5251,
      "1314": 5252,
      "sec": 5253,
      "liance": 5254,
      "condu": 5255,
      "became": 5256,
      "disability": 5257,
      "counter": 5258,
      "Theod": 5259,
      "prove": 5260,
      "proposed": 5261,
      "owing": 5262,
      "ird": 5263,
      "quali": 5264,
      "852": 5265,
      "area": 5266,
      "fault": 5267,
      "agra": 5268,
      "Recor": 5269,
      "990": 5270,
      "cery": 5271,
      "prejudi": 5272,
      "Suite": 5273,
      "1124": 5274,
      "allegations": 5275,
      "TRANS": 5276,
      "thereafter": 5277,
      "Reporter": 5278,
      "Stu": 5279,
      "doing": 5280,
      "Exemption": 5281,
      "Unless": 5282,
      "DATE": 5283,
      "Steven": 5284,
      "Barry": 5285,
      "might": 5286,
      "approved": 5287,
      "Clai": 5288,
      "Club": 5289,
      "Foundation": 5290,
      "placed": 5291,
      "Commonwealth": 5292,
      "medical": 5293,
      "Price": 5294,
      "true": 5295,
      "declaratory": 5296,
      "SERVICES": 5297,
      "Works": 5298,
      "Partner": 5299,
      "Avenue": 5300,
      "improperly": 5301,
      "Alexander": 5302,
      "benefici": 5303,
      "citizen": 5304,
      "Hughes": 5305,
      "aggravated": 5306,
      "FIFTH": 5307,
      "945": 5308,
      "983": 5309,
      "Cit": 5310,
      "CLER": 5311,
      "Dun": 5312,
      "DAN": 5313,
      "Dow": 5314,
      "EPA": 5315,
      "Fre": 5316,
      "GAR": 5317,
      "Group": 5318,
      "Hut": 5319,
      "IAL": 5320,
      "ORE": 5321,
      "Over": 5322,
      "Rand": 5323,
      "Son": 5324,
      "TING": 5325,
      "Vac": 5326,
      "Whether": 5327,
      "bly": 5328,
      "iev": 5329,
      "nis": 5330,
      "precedent": 5331,
      "xon": 5332,
      "ya": 5333,
      "cla": 5334,
      "daughter": 5335,
      "mmons": 5336,
      "alth": 5337,
      "1235": 5338,
      "INDI": 5339,
      "1044": 5340,
      "1060": 5341,
      "1051": 5342,
      "north": 5343,
      "lina": 5344,
      "described": 5345,
      "health": 5346,
      "UST": 5347,
      "Deb": 5348,
      "ANNE": 5349,
      "bow": 5350,
      "program": 5351,
      "olph": 5352,
      "ORABLE": 5353,
      "47069": 5354,
      "excess": 5355,
      "Margaret": 5356,
      "774": 5357,
      "agencies": 5358,
      "acy": 5359,
      "992": 5360,
      "758": 5361,
      "6213": 5362,
      "laws": 5363,
      "1121": 5364,
      "simil": 5365,
      "sections": 5366,
      "MAY": 5367,
      "Ark": 5368,
      "iana": 5369,
      "entire": 5370,
      "employer": 5371,
      "settle": 5372,
      "Steel": 5373,
      "regard": 5374,
      "subsequently": 5375,
      "Executive": 5376,
      "unicipal": 5377,
      "borne": 5378,
      "briefs": 5379,
      "driver": 5380,
      "Brien": 5381,
      "wind": 5382,
      "Administrator": 5383,
      "awarded": 5384,
      "However": 5385,
      "school": 5386,
      "CAROL": 5387,
      "nature": 5388,
      "Pennsylvania": 5389,
      "objections": 5390,
      "Jackson": 5391,
      "miller": 5392,
      "emphasi": 5393,
      "Rosen": 5394,
      "injuries": 5395,
      "HONORABLE": 5396,
      "Third": 5397,
      "Electric": 5398,
      "binding": 5399,
      "LTD": 5400,
      "TEXAS": 5401,
      "Douglas": 5402,
      "affida": 5403,
      "front": 5404,
      "jamin": 5405,
      "CLERK": 5406,
      "similar": 5407,
      "*</": 5408,
      "831": 5409,
      "Bos": 5410,
      "CP": 5411,
      "Cam": 5412,
      "FRE": 5413,
      "Fra": 5414,
      "Hir": 5415,
      "Imp": 5416,
      "Lan": 5417,
      "Ni": 5418,
      "NON": 5419,
      "NOR": 5420,
      "NIA": 5421,
      "Nav": 5422,
      "Practice": 5423,
      "Sil": 5424,
      "Sand": 5425,
      "Sol": 5426,
      "Sho": 5427,
      "Tru": 5428,
      "bas": 5429,
      "border": 5430,
      "dou": 5431,
      "fred": 5432,
      "hill": 5433,
      "ified": 5434,
      "oy": 5435,
      "sis": 5436,
      "¶¶": 5437,
      "assista": 5438,
      "things": 5439,
      "nard": 5440,
      "1920": 5441,
      "1921": 5442,
      "deal": 5443,
      "Cox": 5444,
      "Color": 5445,
      "Cooper": 5446,
      "thew": 5447,
      "reach": 5448,
      "ette": 5449,
      "1244": 5450,
      "1280": 5451,
      "1209": 5452,
      "1207": 5453,
      "ournal": 5454,
      "lement": 5455,
      "1065": 5456,
      "1006": 5457,
      "1057": 5458,
      "park": 5459,
      "ortg": 5460,
      "4720": 5461,
      "1178": 5462,
      "phy": 5463,
      "stating": 5464,
      "dispu": 5465,
      "maker": 5466,
      "thereto": 5467,
      "47038": 5468,
      "TIVE": 5469,
      "891": 5470,
      "withdra": 5471,
      "0000": 5472,
      "faith": 5473,
      "44817": 5474,
      "hereby": 5475,
      "1101": 5476,
      "1105": 5477,
      "Anthony": 5478,
      "corpus": 5479,
      "thereof": 5480,
      "factual": 5481,
      "serve": 5482,
      "BERG": 5483,
      "nedy": 5484,
      "sentencing": 5485,
      "suppress": 5486,
      "supported": 5487,
      "reviewable": 5488,
      "merits": 5489,
      "Paper": 5490,
      "FRAN": 5491,
      "utes": 5492,
      "Compensation": 5493,
      "approximately": 5494,
      "original": 5495,
      "Clay": 5496,
      "Foster": 5497,
      "delity": 5498,
      "NY2d": 5499,
      "damage": 5500,
      "appeared": 5501,
      "Montana": 5502,
      "While": 5503,
      "Mining": 5504,
      "except": 5505,
      "hereinafter": 5506,
      "Kenne": 5507,
      "natl": 5508,
      "equipment": 5509,
      "truck": 5510,
      "juana": 5511,
      "Safety": 5512,
      "stores": 5513,
      "Francisco": 5514,
      "stipulated": 5515,
      "Guaran": 5516,
      "Christopher": 5517,
      "marijuana": 5518,
      "Manufacturing": 5519,
      "prescribed": 5520,
      "Entry": 5521,
      "clerk": 5522,
      "satis": 5523,
      "Theodore": 5524,
      ")\">": 5525,
      "948": 5526,
      "939": 5527,
      "986": 5528,
      "972": 5529,
      "973": 5530,
      "961": 5531,
      "Barker": 5532,
      "Ce": 5533,
      "From": 5534,
      "Fund": 5535,
      "Foll": 5536,
      "Gerald": 5537,
      "House": 5538,
      "IV": 5539,
      "IFOR": 5540,
      "Jan": 5541,
      "Judi": 5542,
      "Lit": 5543,
      "Life": 5544,
      "Lloyd": 5545,
      "Mit": 5546,
      "MISS": 5547,
      "Nash": 5548,
      "OIL": 5549,
      "Pate": 5550,
      "Powell": 5551,
      "Ral": 5552,
      "Sto": 5553,
      "Ston": 5554,
      "Tel": 5555,
      "Va": 5556,
      "Win": 5557,
      "ada": 5558,
      "apon": 5559,
      "bted": 5560,
      "bad": 5561,
      "down": 5562,
      "hos": 5563,
      "ief": 5564,
      "mus": 5565,
      "situ": 5566,
      "tter": 5567,
      "wi": 5568,
      "——": 5569,
      "din": 5570,
      "clas": 5571,
      "clay": 5572,
      "merit": 5573,
      "ures": 5574,
      "incorpor": 5575,
      "tains": 5576,
      "article": 5577,
      "demur": 5578,
      "Coy": 5579,
      "forfe": 5580,
      "reme": 5581,
      "1205": 5582,
      "1251": 5583,
      "1290": 5584,
      "roe": 5585,
      "ENE": 5586,
      "1004": 5587,
      "1076": 5588,
      "2026": 5589,
      "1112": 5590,
      "1135": 5591,
      "1182": 5592,
      "1341": 5593,
      "lia": 5594,
      "content": 5595,
      "products": 5596,
      "apply": 5597,
      "entry": 5598,
      "negoti": 5599,
      "47048": 5600,
      "47099": 5601,
      "iring": 5602,
      "TIES": 5603,
      "nger": 5604,
      "44987": 5605,
      "46947": 5606,
      "many": 5607,
      "ages": 5608,
      "agley": 5609,
      "ign": 5610,
      "ately": 5611,
      "Author": 5612,
      "ott": 5613,
      "ically": 5614,
      "EDWARD": 5615,
      "1100": 5616,
      "others": 5617,
      "indebted": 5618,
      "NES": 5619,
      "charging": 5620,
      "Church": 5621,
      "NOL": 5622,
      "Stock": 5623,
      "Harvey": 5624,
      "URANCE": 5625,
      "SEL": 5626,
      "lllll": 5627,
      "DAVIS": 5628,
      "stituted": 5629,
      "began": 5630,
      "transcri": 5631,
      "receive": 5632,
      "operated": 5633,
      "bankruptcy": 5634,
      "appellate": 5635,
      "Graham": 5636,
      "____________________________": 5637,
      "appearing": 5638,
      "Mont": 5639,
      "certific": 5640,
      "involving": 5641,
      "Building": 5642,
      "llllllllllllllll": 5643,
      "Philadelphia": 5644,
      "ighth": 5645,
      "Amended": 5646,
      "appoint": 5647,
      "Matthew": 5648,
      "CALIFOR": 5649,
      "Watson": 5650,
      "revoc": 5651,
      "Raymond": 5652,
      "alterna": 5653,
      "members": 5654,
      "History": 5655,
      "OFFICE": 5656,
      "Mutual": 5657,
      "Western": 5658,
      "Protection": 5659,
      "ittsburgh": 5660,
      "identified": 5661,
      "railroad": 5662,
      "JONES": 5663,
      "different": 5664,
      "dollars": 5665,
      "particular": 5666,
      "Georgia": 5667,
      "doctrine": 5668,
      "conducted": 5669,
      "Vacated": 5670,
      "disputed": 5671,
      "Ralph": 5672,
      "lllllllllllllllllllll": 5673,
      "CALIFORNIA": 5674,
      ".'": 5675,
      "1196": 5676,
      "4th": 5677,
      "AG": 5678,
      "AY": 5679,
      "EM": 5680,
      "Fur": 5681,
      "Hy": 5682,
      "High": 5683,
      "Iron": 5684,
      "Lil": 5685,
      "MAND": 5686,
      "Pre": 5687,
      "Pier": 5688,
      "SP": 5689,
      "System": 5690,
      "Sidney": 5691,
      "TU": 5692,
      "Tu": 5693,
      "Tre": 5694,
      "VAL": 5695,
      "Ware": 5696,
      "cr": 5697,
      "done": 5698,
      "fall": 5699,
      "gel": 5700,
      "hab": 5701,
      "iam": 5702,
      "ious": 5703,
      "ota": 5704,
      "patent": 5705,
      "aside": 5706,
      "ions": 5707,
      "dist": 5708,
      "tex": 5709,
      "meth": 5710,
      "mere": 5711,
      "memor": 5712,
      "ero": 5713,
      "incurred": 5714,
      "cou": 5715,
      "arra": 5716,
      "demand": 5717,
      "als": 5718,
      "enty": 5719,
      "1228": 5720,
      "1231": 5721,
      "1291": 5722,
      "rie": 5723,
      "INVES": 5724,
      "ouri": 5725,
      "nick": 5726,
      "1012": 5727,
      "1013": 5728,
      "1029": 5729,
      "1015": 5730,
      "1017": 5731,
      "1055": 5732,
      "1087": 5733,
      "1056": 5734,
      "1062": 5735,
      "1093": 5736,
      "untain": 5737,
      "ality": 5738,
      "atri": 5739,
      "1119": 5740,
      "1150": 5741,
      "phys": 5742,
      "stic": 5743,
      "street": 5744,
      "lake": 5745,
      "cting": 5746,
      "COTT": 5747,
      "head": 5748,
      "lien": 5749,
      "bey": 5750,
      "fif": 5751,
      "TEL": 5752,
      "47030": 5753,
      "47060": 5754,
      "move": 5755,
      "exemption": 5756,
      "uss": 5757,
      "001": 5758,
      "Interven": 5759,
      "44727": 5760,
      "44749": 5761,
      "allas": 5762,
      "manu": 5763,
      "APP": 5764,
      "habeas": 5765,
      "Rose": 5766,
      "APPEL": 5767,
      "believ": 5768,
      "Represen": 5769,
      "times": 5770,
      "URN": 5771,
      "AMP": 5772,
      "himself": 5773,
      "sett": 5774,
      "persons": 5775,
      "determining": 5776,
      "grants": 5777,
      "POLI": 5778,
      "Colle": 5779,
      "rules": 5780,
      "Farm": 5781,
      "execution": 5782,
      "Social": 5783,
      "Transit": 5784,
      "Wool": 5785,
      "Whit": 5786,
      "Benjamin": 5787,
      "include": 5788,
      "instructions": 5789,
      "natural": 5790,
      "administrator": 5791,
      "INSURANCE": 5792,
      "YLOR": 5793,
      "Watch": 5794,
      "JEFF": 5795,
      "Missouri": 5796,
      "GRANTING": 5797,
      "ordinary": 5798,
      "john": 5799,
      "discussed": 5800,
      "Ryan": 5801,
      "SECURITY": 5802,
      "Midd": 5803,
      "Samuel": 5804,
      "stockholders": 5805,
      "width": 5806,
      "Eastern": 5807,
      "Record": 5808,
      "prejudice": 5809,
      "assistance": 5810,
      "Kenneth": 5811,
      "%\"": 5812,
      "7463": 5813,
      "958": 5814,
      "Bor": 5815,
      "Bre": 5816,
      "Center": 5817,
      "Edu": 5818,
      "Eighth": 5819,
      "Fa": 5820,
      "Glass": 5821,
      "Hi": 5822,
      "Hear": 5823,
      "HAN": 5824,
      "HUM": 5825,
      "HIG": 5826,
      "Husband": 5827,
      "Jur": 5828,
      "Kath": 5829,
      "Nev": 5830,
      "One": 5831,
      "Pot": 5832,
      "Presiding": 5833,
      "Red": 5834,
      "Ren": 5835,
      "Rou": 5836,
      "Snyder": 5837,
      "Tow": 5838,
      "Trustees": 5839,
      "UFACT": 5840,
      "Was": 5841,
      "WRI": 5842,
      "duly": 5843,
      "kel": 5844,
      "lower": 5845,
      "mid": 5846,
      "mits": 5847,
      "uter": 5848,
      "oner": 5849,
      "isl": 5850,
      "copy": 5851,
      "ara": 5852,
      "arises": 5853,
      "1913": 5854,
      "urton": 5855,
      "urtis": 5856,
      "demean": 5857,
      "anna": 5858,
      "annex": 5859,
      "Cour": 5860,
      "TAYLOR": 5861,
      "email": 5862,
      "1214": 5863,
      "1237": 5864,
      "1270": 5865,
      "1258": 5866,
      "ries": 5867,
      "rove": 5868,
      "nton": 5869,
      "RECOMM": 5870,
      "ula": 5871,
      "elt": 5872,
      "1036": 5873,
      "1008": 5874,
      "1075": 5875,
      "1058": 5876,
      "1053": 5877,
      "told": 5878,
      "stead": 5879,
      "atz": 5880,
      "atch": 5881,
      "iture": 5882,
      "1139": 5883,
      "phone": 5884,
      "ASS": 5885,
      "stop": 5886,
      "CIAL": 5887,
      "Dep": 5888,
      "discrimination": 5889,
      "mail": 5890,
      "TES": 5891,
      "neider": 5892,
      "neither": 5893,
      "47036": 5894,
      "ENTRY": 5895,
      "cks": 5896,
      "ayne": 5897,
      "44925": 5898,
      "prede": 5899,
      "authorized": 5900,
      "abused": 5901,
      "4696": 5902,
      "LLO": 5903,
      "iggins": 5904,
      "APA": 5905,
      "wers": 5906,
      "compel": 5907,
      "odd": 5908,
      "odge": 5909,
      "trade": 5910,
      "weapon": 5911,
      "avail": 5912,
      "Beck": 5913,
      "Becker": 5914,
      "1120": 5915,
      "1128": 5916,
      "strike": 5917,
      "Acting": 5918,
      "gomery": 5919,
      "Leon": 5920,
      "RAIL": 5921,
      "Management": 5922,
      "regul": 5923,
      "Milling": 5924,
      "Scho": 5925,
      "Schwartz": 5926,
      "MANUFACT": 5927,
      "speci": 5928,
      "respond": 5929,
      "JACK": 5930,
      "interpre": 5931,
      "indicted": 5932,
      "allegedly": 5933,
      "athan": 5934,
      "deductions": 5935,
      "sufficiency": 5936,
      "Right": 5937,
      "mises": 5938,
      "misdemean": 5939,
      "showing": 5940,
      "DENI": 5941,
      "partners": 5942,
      "Louisiana": 5943,
      "thirty": 5944,
      "adequ": 5945,
      "asserted": 5946,
      "asserts": 5947,
      "Kennedy": 5948,
      "farm": 5949,
      "deficiencies": 5950,
      "Chris": 5951,
      "Matter": 5952,
      "negligent": 5953,
      "proceeds": 5954,
      "controll": 5955,
      "Murray": 5956,
      "waived": 5957,
      "niture": 5958,
      "Reporting": 5959,
      "Commerce": 5960,
      "continued": 5961,
      "Remand": 5962,
      "secured": 5963,
      "unlawful": 5964,
      "exercise": 5965,
      "Carolina": 5966,
      "EASTERN": 5967,
      "explained": 5968,
      "HENRY": 5969,
      "Probate": 5970,
      "magistrate": 5971,
      "Eliza": 5972,
      "agraph": 5973,
      "Following": 5974,
      "RECOMMEND": 5975,
      "982": 5976,
      ">[": 5977,
      ">*</": 5978,
      "AK": 5979,
      "Ap": 5980,
      "ALEX": 5981,
      "AGE": 5982,
      "Agree": 5983,
      "Branch": 5984,
      "CC": 5985,
      "Crow": 5986,
      "Dallas": 5987,
      "ELI": 5988,
      "Flo": 5989,
      "GG": 5990,
      "IANA": 5991,
      "Lor": 5992,
      "MN": 5993,
      "Ms": 5994,
      "Mas": 5995,
      "Men": 5996,
      "Mortgage": 5997,
      "Nu": 5998,
      "Ol": 5999,
      "Pas": 6000,
      "RISS": 6001,
      "TRO": 6002,
      "Wer": 6003,
      "WER": 6004,
      "ena": 6005,
      "gun": 6006,
      "ko": 6007,
      "mc": 6008,
      "nd": 6009,
      "rer": 6010,
      "system": 6011,
      "ucky": 6012,
      "vation": 6013,
      "tech": 6014,
      "ern": 6015,
      "orari": 6016,
      "thal": 6017,
      "think": 6018,
      "codi": 6019,
      "defen": 6020,
      "default": 6021,
      "forma": 6022,
      "reconsideration": 6023,
      "1246": 6024,
      "1248": 6025,
      "1221": 6026,
      "rift": 6027,
      "1024": 6028,
      "1038": 6029,
      "1021": 6030,
      "1007": 6031,
      "1078": 6032,
      "1063": 6033,
      "1071": 6034,
      "1096": 6035,
      "earlier": 6036,
      "20U": 6037,
      "unless": 6038,
      "1148": 6039,
      "1169": 6040,
      "1183": 6041,
      "Not": 6042,
      "admit": 6043,
      "advan": 6044,
      "lines": 6045,
      "1348": 6046,
      "lif": 6047,
      "RIES": 6048,
      "gave": 6049,
      "rather": 6050,
      "mana": 6051,
      "rum": 6052,
      "outs": 6053,
      "VENTH": 6054,
      "olly": 6055,
      "therine": 6056,
      "very": 6057,
      "bodytext": 6058,
      "moves": 6059,
      "exis": 6060,
      "ami": 6061,
      "face": 6062,
      "4695": 6063,
      "46966": 6064,
      "46955": 6065,
      "4483": 6066,
      "44828": 6067,
      "44816": 6068,
      "agg": 6069,
      "judgments": 6070,
      "premises": 6071,
      "independent": 6072,
      "sidi": 6073,
      "TRA": 6074,
      "NORT": 6075,
      "URING": 6076,
      "Hein": 6077,
      "bury": 6078,
      "Advertising": 6079,
      "sentences": 6080,
      "volun": 6081,
      "standard": 6082,
      "errors": 6083,
      "transaction": 6084,
      "HOME": 6085,
      "worked": 6086,
      "furnish": 6087,
      "unic": 6088,
      "portation": 6089,
      "Burns": 6090,
      "Procedural": 6091,
      "fourth": 6092,
      "___________________________": 6093,
      "Franklin": 6094,
      "Brian": 6095,
      "Woods": 6096,
      "Person": 6097,
      "bench": 6098,
      "Amount": 6099,
      "individuals": 6100,
      "protection": 6101,
      "TRUSTEES": 6102,
      "transferred": 6103,
      "roleum": 6104,
      "guaran": 6105,
      "Laboratories": 6106,
      "burgl": 6107,
      "Human": 6108,
      "bama": 6109,
      "conclusions": 6110,
      "examination": 6111,
      "Equipment": 6112,
      "balance": 6113,
      "imposed": 6114,
      "Industrial": 6115,
      "Ellis": 6116,
      "VILLE": 6117,
      "mandatory": 6118,
      "Accordingly": 6119,
      "relationship": 6120,
      "Roberts": 6121,
      "limitations": 6122,
      "affidavit": 6123,
      "Colorado": 6124,
      "Montgomery": 6125,
      "certificate": 6126,
      "appointment": 6127,
      "beyond": 6128,
      "MANUFACTURING": 6129,
      "1195": 6130,
      "989": 6131,
      "978": 6132,
      "976": 6133,
      "Bel": 6134,
      "Bra": 6135,
      "Burton": 6136,
      "Cant": 6137,
      "DR": 6138,
      "DS": 6139,
      "Da": 6140,
      "Dar": 6141,
      "DIA": 6142,
      "Detro": 6143,
      "East": 6144,
      "Gran": 6145,
      "God": 6146,
      "IOR": 6147,
      "MIT": 6148,
      "Oli": 6149,
      "PP": 6150,
      "Pon": 6151,
      "Press": 6152,
      "SY": 6153,
      "SEN": 6154,
      "Seven": 6155,
      "VERS": 6156,
      "YE": 6157,
      "_ref": 6158,
      "b12": 6159,
      "cen": 6160,
      "cro": 6161,
      "itary": 6162,
      "itable": 6163,
      "job": 6164,
      "lem": 6165,
      "ltd": 6166,
      "never": 6167,
      "nett": 6168,
      "ome": 6169,
      "plain": 6170,
      "president": 6171,
      "ume": 6172,
      "wide": 6173,
      "your": 6174,
      "zation": 6175,
      "pad": 6176,
      "pacific": 6177,
      "pauper": 6178,
      "isen": 6179,
      "ind": 6180,
      "threa": 6181,
      "tage": 6182,
      "deposition": 6183,
      "defe": 6184,
      "anti": 6185,
      "anne": 6186,
      "Cole": 6187,
      "ONE": 6188,
      "rear": 6189,
      "reser": 6190,
      "etts": 6191,
      "1220": 6192,
      "1229": 6193,
      "1245": 6194,
      "aritable": 6195,
      "RET": 6196,
      "elli": 6197,
      "1014": 6198,
      "1037": 6199,
      "1069": 6200,
      "1089": 6201,
      "1042": 6202,
      "share": 6203,
      "2056": 6204,
      "ati": 6205,
      "1131": 6206,
      "1185": 6207,
      "1159": 6208,
      "1154": 6209,
      "1304": 6210,
      "tively": 6211,
      "seem": 6212,
      "cts": 6213,
      "Income": 6214,
      "contr": 6215,
      "coll": 6216,
      "ruit": 6217,
      "fix": 6218,
      "UEL": 6219,
      "47027": 6220,
      "47059": 6221,
      "Boston": 6222,
      "usetts": 6223,
      "ANDRE": 6224,
      "44985": 6225,
      "44730": 6226,
      "tencing": 6227,
      "authoriz": 6228,
      "46980": 6229,
      "ROB": 6230,
      "ROSS": 6231,
      "arguments": 6232,
      "Road": 6233,
      "Roger": 6234,
      "Super": 6235,
      "traffi": 6236,
      "Conn": 6237,
      "Proper": 6238,
      "achusetts": 6239,
      "ousing": 6240,
      "MATTER": 6241,
      "NORTH": 6242,
      "community": 6243,
      "goods": 6244,
      "Art": 6245,
      "Army": 6246,
      "Arnold": 6247,
      "chester": 6248,
      "Lake": 6249,
      "effective": 6250,
      "ways": 6251,
      "status": 6252,
      "JOHNSON": 6253,
      "Calla": 6254,
      "brook": 6255,
      "essional": 6256,
      "Burk": 6257,
      "_________________________": 6258,
      "Benef": 6259,
      "joined": 6260,
      "challenging": 6261,
      "FACTS": 6262,
      "pleadings": 6263,
      "SECOND": 6264,
      "petit": 6265,
      "FIRST": 6266,
      "Timo": 6267,
      "justment": 6268,
      "violate": 6269,
      "Jeffrey": 6270,
      "SCHO": 6271,
      "Columbus": 6272,
      "benefit": 6273,
      "Kahn": 6274,
      "Valley": 6275,
      "XXXX": 6276,
      "promiss": 6277,
      "resided": 6278,
      "LOUISIANA": 6279,
      "Employee": 6280,
      "Campbell": 6281,
      "Bradley": 6282,
      "Certi": 6283,
      "investigation": 6284,
      "Springs": 6285,
      "injunction": 6286,
      "Kentucky": 6287,
      "complete": 6288,
      "twenty": 6289,
      "Railroad": 6290,
      "dorf": 6291,
      "Gregory": 6292,
      "Turner": 6293,
      "Broadway": 6294,
      "University": 6295,
      "MARTIN": 6296,
      "williams": 6297,
      "consistent": 6298,
      "Ernest": 6299,
      "words": 6300,
      "Formerly": 6301,
      "DOCKET": 6302,
      "hospital": 6303,
      "Authority": 6304,
      "Representative": 6305,
      "misdemeanor": 6306,
      "Elizabeth": 6307,
      "Detroit": 6308,
      "threaten": 6309,
      ".—": 6310,
      "7456": 6311,
      "950": 6312,
      "?</": 6313,
      "Ari": 6314,
      "Bet": 6315,
      "Bau": 6316,
      "Cre": 6317,
      "Came": 6318,
      "CRA": 6319,
      "DU": 6320,
      "DOR": 6321,
      "Dick": 6322,
      "Eu": 6323,
      "Ewing": 6324,
      "Fle": 6325,
      "Glo": 6326,
      "Hunt": 6327,
      "HOL": 6328,
      "IB": 6329,
      "ITH": 6330,
      "Je": 6331,
      "Kev": 6332,
      "MEN": 6333,
      "Ow": 6334,
      "Pinson": 6335,
      "Rub": 6336,
      "Sp": 6337,
      "SAN": 6338,
      "Squ": 6339,
      "Str": 6340,
      "URE": 6341,
      "VING": 6342,
      "WS": 6343,
      "WIS": 6344,
      "WIN": 6345,
      "Wells": 6346,
      "bson": 6347,
      "ected": 6348,
      "eks": 6349,
      "few": 6350,
      "get": 6351,
      "gif": 6352,
      "latter": 6353,
      "othy": 6354,
      "press": 6355,
      "practi": 6356,
      "sco": 6357,
      "wan": 6358,
      "dine": 6359,
      "ised": 6360,
      "install": 6361,
      "dall": 6362,
      "aro": 6363,
      "armed": 6364,
      "arising": 6365,
      "dem": 6366,
      "delay": 6367,
      "chols": 6368,
      "along": 6369,
      "removed": 6370,
      "chell": 6371,
      "etta": 6372,
      "ilities": 6373,
      "sul": 6374,
      "sual": 6375,
      "1260": 6376,
      "ided": 6377,
      "ulf": 6378,
      "ella": 6379,
      "1030": 6380,
      "1023": 6381,
      "1033": 6382,
      "1085": 6383,
      "1009": 6384,
      "1072": 6385,
      "nolo": 6386,
      "union": 6387,
      "47155": 6388,
      "itt": 6389,
      "1110": 6390,
      "1147": 6391,
      "1142": 6392,
      "1176": 6393,
      "ader": 6394,
      "convey": 6395,
      "dison": 6396,
      "discharge": 6397,
      "mach": 6398,
      "prohib": 6399,
      "6673": 6400,
      "ORY": 6401,
      "thers": 6402,
      "47040": 6403,
      "vity": 6404,
      "perman": 6405,
      "Box": 6406,
      "ckett": 6407,
      "most": 6408,
      "exemp": 6409,
      "absen": 6410,
      "44826": 6411,
      "access": 6412,
      "subdivision": 6413,
      "DEL": 6414,
      "comply": 6415,
      "pretrial": 6416,
      "effor": 6417,
      "Counter": 6418,
      "Atlan": 6419,
      "estment": 6420,
      "1104": 6421,
      "charac": 6422,
      "poin": 6423,
      "mentary": 6424,
      "prim": 6425,
      "price": 6426,
      "therein": 6427,
      "lands": 6428,
      "LIE": 6429,
      "URAL": 6430,
      "obtain": 6431,
      "ILD": 6432,
      "errone": 6433,
      "claiming": 6434,
      "MORRISS": 6435,
      "reviewed": 6436,
      "1190": 6437,
      "interests": 6438,
      "SUPER": 6439,
      "covered": 6440,
      "BELL": 6441,
      "Collins": 6442,
      "deduct": 6443,
      "HERE": 6444,
      "WART": 6445,
      "portions": 6446,
      "direction": 6447,
      "Parti": 6448,
      "Denver": 6449,
      "itlement": 6450,
      "Davidson": 6451,
      "COUNSEL": 6452,
      "WILLIAMS": 6453,
      "...\">": 6454,
      "certified": 6455,
      "realty": 6456,
      "IRD": 6457,
      "Administration": 6458,
      "marriage": 6459,
      "PROCED": 6460,
      "vacy": 6461,
      "distribute": 6462,
      "CLUS": 6463,
      "Warren": 6464,
      "STEIN": 6465,
      "Prior": 6466,
      "Field": 6467,
      "_________________________________": 6468,
      "assigned": 6469,
      "assignment": 6470,
      "Miami": 6471,
      "modified": 6472,
      "modification": 6473,
      "Dorothy": 6474,
      "profit": 6475,
      "produced": 6476,
      "════════": 6477,
      "Alabama": 6478,
      "participa": 6479,
      "MILLER": 6480,
      "WESTERN": 6481,
      "PUBLISHED": 6482,
      "Claimant": 6483,
      "Published": 6484,
      "Stores": 6485,
      "procedural": 6486,
      "ineffective": 6487,
      "STONE": 6488,
      "merous": 6489,
      "Stuart": 6490,
      "Citiz": 6491,
      "settlement": 6492,
      "Stone": 6493,
      "available": 6494,
      "Remanded": 6495,
      "pauperis": 6496,
      "Benefits": 6497,
      "Timothy": 6498,
      "promissory": 6499,
      "Kevin": 6500,
      "absence": 6501,
      "\").": 6502,
      ",\"": 6503,
      "AJ": 6504,
      "Bent": 6505,
      "Bill": 6506,
      "CLE": 6507,
      "Cay": 6508,
      "Cus": 6509,
      "Cher": 6510,
      "Fay": 6511,
      "GAL": 6512,
      "GUE": 6513,
      "Hou": 6514,
      "Int": 6515,
      "Journal": 6516,
      "KI": 6517,
      "Mel": 6518,
      "Mason": 6519,
      "Porter": 6520,
      "Pittsburgh": 6521,
      "Rock": 6522,
      "SAM": 6523,
      "VO": 6524,
      "VEL": 6525,
      "Wall": 6526,
      "_reference": 6527,
      "bear": 6528,
      "fam": 6529,
      "jail": 6530,
      "litigation": 6531,
      "mni": 6532,
      "sy": 6533,
      "sive": 6534,
      "small": 6535,
      "wri": 6536,
      "yard": 6537,
      "ze": 6538,
      "zel": 6539,
      "“[": 6540,
      "pal": 6541,
      "dish": 6542,
      "tem": 6543,
      "clause": 6544,
      "taking": 6545,
      "del": 6546,
      "chinson": 6547,
      "ano": 6548,
      "although": 6549,
      "sulated": 6550,
      "1279": 6551,
      "1200": 6552,
      "1206": 6553,
      "1297": 6554,
      "rod": 6555,
      "roy": 6556,
      "occu": 6557,
      "ulent": 6558,
      "opin": 6559,
      "1079": 6560,
      "1098": 6561,
      "tol": 6562,
      "parcel": 6563,
      "2055": 6564,
      "foster": 6565,
      "ERSON": 6566,
      "atten": 6567,
      "1164": 6568,
      "stin": 6569,
      "refusing": 6570,
      "1342": 6571,
      "1306": 6572,
      "2500": 6573,
      "2583": 6574,
      "desig": 6575,
      "Instru": 6576,
      "color": 6577,
      "CHR": 6578,
      "applying": 6579,
      "COMMON": 6580,
      "4702": 6581,
      "47025": 6582,
      "47000": 6583,
      "viving": 6584,
      "quida": 6585,
      "THI": 6586,
      "moving": 6587,
      "existing": 6588,
      "4492": 6589,
      "4476": 6590,
      "44785": 6591,
      "tence": 6592,
      "46948": 6593,
      "46938": 6594,
      "778": 6595,
      "44813": 6596,
      "44823": 6597,
      "44866": 6598,
      "44838": 6599,
      "accur": 6600,
      "Regin": 6601,
      "CEED": 6602,
      "Joy": 6603,
      "1103": 6604,
      "PAUL": 6605,
      "PATRI": 6606,
      "send": 6607,
      "cessor": 6608,
      "Chem": 6609,
      "Child": 6610,
      "consisting": 6611,
      "payable": 6612,
      "door": 6613,
      "Arm": 6614,
      "denies": 6615,
      "Peters": 6616,
      "vention": 6617,
      "valid": 6618,
      "followed": 6619,
      "commer": 6620,
      "comes": 6621,
      "Carroll": 6622,
      "Mahon": 6623,
      "imum": 6624,
      "DOE": 6625,
      "contracts": 6626,
      "contractor": 6627,
      "carry": 6628,
      "approval": 6629,
      "MORT": 6630,
      "HEALTH": 6631,
      "CONCLUS": 6632,
      "barred": 6633,
      "relli": 6634,
      "analy": 6635,
      "cross_reference": 6636,
      "bros": 6637,
      "Policy": 6638,
      "PRECED": 6639,
      "ownership": 6640,
      "Hendri": 6641,
      "Howell": 6642,
      "sched": 6643,
      "lumber": 6644,
      "PROCEED": 6645,
      "instrument": 6646,
      "Bailey": 6647,
      "HARRY": 6648,
      "bbons": 6649,
      "cellspa": 6650,
      "cellpad": 6651,
      "plus": 6652,
      "witnesses": 6653,
      "indicates": 6654,
      "Fidelity": 6655,
      "firearm": 6656,
      "specifically": 6657,
      "Vermont": 6658,
      "walk": 6659,
      "single": 6660,
      "requirements": 6661,
      "CBP": 6662,
      "resulting": 6663,
      "Drilling": 6664,
      "WEST": 6665,
      "Medical": 6666,
      "Industries": 6667,
      "injunctive": 6668,
      "Fisher": 6669,
      "RCW": 6670,
      "reduced": 6671,
      "Engine": 6672,
      "Grand": 6673,
      "Defs": 6674,
      "privile": 6675,
      "Wheeler": 6676,
      "Jacobs": 6677,
      "Earl": 6678,
      "Interior": 6679,
      "Judiciary": 6680,
      "incorporated": 6681,
      "forfeiture": 6682,
      "transcript": 6683,
      "ALEXANDER": 6684,
      "Agreement": 6685,
      "outside": 6686,
      "NORTHERN": 6687,
      "unications": 6688,
      "burglary": 6689,
      "trafficking": 6690,
      "CONCLUSION": 6691,
      "PRECEDENT": 6692,
      "cellspacing": 6693,
      "cellpadding": 6694,
      "(<": 6695,
      "7th": 6696,
      "ARE": 6697,
      "BLE": 6698,
      "BEN": 6699,
      "BAS": 6700,
      "BEC": 6701,
      "Blu": 6702,
      "Bagley": 6703,
      "CENT": 6704,
      "Clo": 6705,
      "DL": 6706,
      "Dedu": 6707,
      "Este": 6708,
      "Ever": 6709,
      "Fry": 6710,
      "Fish": 6711,
      "Ga": 6712,
      "GHT": 6713,
      "Hub": 6714,
      "Hum": 6715,
      "HRS": 6716,
      "I4": 6717,
      "IC": 6718,
      "JU": 6719,
      "K1": 6720,
      "Kur": 6721,
      "Kau": 6722,
      "Line": 6723,
      "More": 6724,
      "Mack": 6725,
      "MCL": 6726,
      "Mortg": 6727,
      "Nick": 6728,
      "Pi": 6729,
      "PTS": 6730,
      "Rene": 6731,
      "Sy": 6732,
      "Sur": 6733,
      "Seni": 6734,
      "Wor": 6735,
      "Ward": 6736,
      "aco": 6737,
      "camp": 6738,
      "eight": 6739,
      "gni": 6740,
      "gold": 6741,
      "hall": 6742,
      "iot": 6743,
      "kill": 6744,
      "kinson": 6745,
      "nine": 6746,
      "pol": 6747,
      "put": 6748,
      "sal": 6749,
      "station": 6750,
      "tbe": 6751,
      "wick": 6752,
      "ono": 6753,
      "ional": 6754,
      "dic": 6755,
      "dio": 6756,
      "meter": 6757,
      "mestic": 6758,
      "esti": 6759,
      "ina": 6760,
      "orated": 6761,
      "thus": 6762,
      "tail": 6763,
      "danger": 6764,
      "names": 6765,
      "deposit": 6766,
      "chke": 6767,
      "Cohen": 6768,
      "ental": 6769,
      "endar": 6770,
      "ille": 6771,
      "suffer": 6772,
      "1282": 6773,
      "river": 6774,
      "nim": 6775,
      "1026": 6776,
      "1073": 6777,
      "paragraph": 6778,
      "ung": 6779,
      "alia": 6780,
      "47177": 6781,
      "aton": 6782,
      "1130": 6783,
      "1137": 6784,
      "1165": 6785,
      "1157": 6786,
      "1162": 6787,
      "1184": 6788,
      "stay": 6789,
      "Noti": 6790,
      "admission": 6791,
      "1324": 6792,
      "2755": 6793,
      "Defense": 6794,
      "Decedent": 6795,
      "living": 6796,
      "contest": 6797,
      "ALLEN": 6798,
      "selling": 6799,
      "Theat": 6800,
      "47017": 6801,
      "47035": 6802,
      "6013": 6803,
      "pert": 6804,
      "perform": 6805,
      "moot": 6806,
      "expe": 6807,
      "REST": 6808,
      "heroin": 6809,
      "4493": 6810,
      "44916": 6811,
      "4472": 6812,
      "44750": 6813,
      "cancell": 6814,
      "orporated": 6815,
      "underlying": 6816,
      "mance": 6817,
      "Incorporated": 6818,
      "4482": 6819,
      "44850": 6820,
      "44849": 6821,
      "mining": 6822,
      "substance": 6823,
      "Rogers": 6824,
      "away": 6825,
      "prepar": 6826,
      "prejudicial": 6827,
      "insured": 6828,
      "Contro": 6829,
      "Project": 6830,
      "Anne": 6831,
      "causes": 6832,
      "fn1": 6833,
      "MAG": 6834,
      "Weil": 6835,
      "Exchange": 6836,
      "rental": 6837,
      "SEP": 6838,
      "whom": 6839,
      "FOURT": 6840,
      "burden": 6841,
      "supple": 6842,
      "overruled": 6843,
      "Carol": 6844,
      "regon": 6845,
      "usement": 6846,
      "Barclay": 6847,
      "acting": 6848,
      "substanti": 6849,
      "BETH": 6850,
      "RYAN": 6851,
      "operative": 6852,
      "CONS": 6853,
      "whereby": 6854,
      "appellees": 6855,
      "maintain": 6856,
      "probable": 6857,
      "Finance": 6858,
      "Some": 6859,
      "constitute": 6860,
      "items": 6861,
      "Buck": 6862,
      "purchas": 6863,
      "WEALTH": 6864,
      "Herbert": 6865,
      "clusive": 6866,
      "BOARD": 6867,
      "accordingly": 6868,
      "VIDUAL": 6869,
      "election": 6870,
      "Peterson": 6871,
      "Value": 6872,
      "Craig": 6873,
      "GREEN": 6874,
      "Massachusetts": 6875,
      "Tech": 6876,
      "resulted": 6877,
      "Royal": 6878,
      "Certain": 6879,
      "Commercial": 6880,
      "clearly": 6881,
      "Russell": 6882,
      "Townsend": 6883,
      "Publishing": 6884,
      "Lester": 6885,
      "attempted": 6886,
      "ADMINISTRATOR": 6887,
      "Friedman": 6888,
      "introduced": 6889,
      "competent": 6890,
      "Legal": 6891,
      "ciplin": 6892,
      "Klein": 6893,
      "beneficiary": 6894,
      "INDIVIDUAL": 6895,
      "Arkansas": 6896,
      "FRANCIS": 6897,
      "Clayton": 6898,
      "Mitchell": 6899,
      "demurrer": 6900,
      "remedy": 6901,
      "physical": 6902,
      "POLICE": 6903,
      "specified": 6904,
      "Rights": 6905,
      "DENIED": 6906,
      "manager": 6907,
      "Property": 6908,
      "nology": 6909,
      "permanent": 6910,
      "character": 6911,
      "SUPERIOR": 6912,
      "Houston": 6913,
      "Senior": 6914,
      "Aa": 6915,
      "Ana": 6916,
      "Bas": 6917,
      "Brew": 6918,
      "Clin": 6919,
      "CAP": 6920,
      "Curtis": 6921,
      "Diss": 6922,
      "FRED": 6923,
      "Gon": 6924,
      "Gill": 6925,
      "HUN": 6926,
      "IZ": 6927,
      "Jar": 6928,
      "JUN": 6929,
      "Just": 6930,
      "Jane": 6931,
      "KIN": 6932,
      "Kno": 6933,
      "Kerr": 6934,
      "Kim": 6935,
      "Lang": 6936,
      "MUR": 6937,
      "MILL": 6938,
      "OM": 6939,
      "Pie": 6940,
      "Present": 6941,
      "Ram": 6942,
      "Rav": 6943,
      "SAL": 6944,
      "SHO": 6945,
      "SHE": 6946,
      "Tom": 6947,
      "VT": 6948,
      "WAS": 6949,
      "Wad": 6950,
      "WAR": 6951,
      "Wire": 6952,
      "bt": 6953,
      "bail": 6954,
      "eh": 6955,
      "hu": 6956,
      "ident": 6957,
      "last": 6958,
      "ming": 6959,
      "mos": 6960,
      "mut": 6961,
      "rne": 6962,
      "sit": 6963,
      "sav": 6964,
      "va": 6965,
      "wel": 6966,
      "wald": 6967,
      "wford": 6968,
      "yon": 6969,
      "pair": 6970,
      "isa": 6971,
      "mess": 6972,
      "means": 6973,
      "urer": 6974,
      "ering": 6975,
      "informed": 6976,
      "ora": 6977,
      "thouse": 6978,
      "dale": 6979,
      "cox": 6980,
      "cock": 6981,
      "arrested": 6982,
      "eder": 6983,
      "mmond": 6984,
      "issipp": 6985,
      "demon": 6986,
      "dead": 6987,
      "formance": 6988,
      "courtsum": 6989,
      "reti": 6990,
      "chel": 6991,
      "ente": 6992,
      "illegal": 6993,
      "1211": 6994,
      "1249": 6995,
      "1236": 6996,
      "1203": 6997,
      "1278": 6998,
      "1276": 6999,
      "1281": 7000,
      "1261": 7001,
      "rien": 7002,
      "ridge": 7003,
      "ricia": 7004,
      "richard": 7005,
      "REMAND": 7006,
      "numerous": 7007,
      "1048": 7008,
      "1049": 7009,
      "1059": 7010,
      "1083": 7011,
      "unpaid": 7012,
      "unreasonable": 7013,
      "1133": 7014,
      "1155": 7015,
      "1141": 7016,
      "1163": 7017,
      "1171": 7018,
      "still": 7019,
      "adjudi": 7020,
      "1368": 7021,
      "1381": 7022,
      "1361": 7023,
      "2503": 7024,
      "2907": 7025,
      "1885": 7026,
      "1883": 7027,
      "COAL": 7028,
      "heir": 7029,
      "Develop": 7030,
      "Individ": 7031,
      "conda": 7032,
      "1402": 7033,
      "ANGE": 7034,
      "dissol": 7035,
      "CHE": 7036,
      "CHOL": 7037,
      "posing": 7038,
      "repe": 7039,
      "reported": 7040,
      "aus": 7041,
      "geant": 7042,
      "hibit": 7043,
      "ORS": 7044,
      "47026": 7045,
      "47018": 7046,
      "47046": 7047,
      "47039": 7048,
      "resentencing": 7049,
      "permitted": 7050,
      "Boo": 7051,
      "THY": 7052,
      "44926": 7053,
      "44933": 7054,
      "Marsh": 7055,
      "dend": 7056,
      "struction": 7057,
      "agan": 7058,
      "agent": 7059,
      "acres": 7060,
      "active": 7061,
      "white": 7062,
      "993": 7063,
      "awarding": 7064,
      "officials": 7065,
      "Sum": 7066,
      "duties": 7067,
      "6330": 7068,
      "ADA": 7069,
      "1109": 7070,
      "MARI": 7071,
      "CKER": 7072,
      "versy": 7073,
      "object": 7074,
      "observed": 7075,
      "chanic": 7076,
      "petitions": 7077,
      "visa": 7078,
      "oked": 7079,
      "VII": 7080,
      "LOAN": 7081,
      "LOCK": 7082,
      "violence": 7083,
      "setting": 7084,
      "begin": 7085,
      "Schneider": 7086,
      "Thor": 7087,
      "Three": 7088,
      "Barnes": 7089,
      "aldwin": 7090,
      "every": 7091,
      "operation": 7092,
      "Fox": 7093,
      "2254": 7094,
      "notify": 7095,
      "Shel": 7096,
      "Dennis": 7097,
      "JOURN": 7098,
      "allowing": 7099,
      "Findings": 7100,
      "Holland": 7101,
      "offman": 7102,
      "shows": 7103,
      "SIDIA": 7104,
      "Philip": 7105,
      "Norman": 7106,
      "married": 7107,
      "Good": 7108,
      "respectively": 7109,
      "Environmental": 7110,
      "vacated": 7111,
      "asserting": 7112,
      "Maryland": 7113,
      "Patricia": 7114,
      "GAGE": 7115,
      "formerly": 7116,
      "Pls": 7117,
      "mills": 7118,
      "passed": 7119,
      "reversal": 7120,
      "control": 7121,
      "controversy": 7122,
      "Hanover": 7123,
      "Prof": 7124,
      "Pratt": 7125,
      "unanim": 7126,
      "Butler": 7127,
      "dentiary": 7128,
      "requirement": 7129,
      "treated": 7130,
      "SERVICE": 7131,
      "partial": 7132,
      "Brooks": 7133,
      "courtsummar": 7134,
      "gotiation": 7135,
      "confli": 7136,
      "Boyd": 7137,
      "Hospital": 7138,
      "RULE": 7139,
      "activity": 7140,
      "initiated": 7141,
      "obligation": 7142,
      "policies": 7143,
      "organizations": 7144,
      "Nichol": 7145,
      "Kelly": 7146,
      "companies": 7147,
      "JERSEY": 7148,
      "WILSON": 7149,
      "false": 7150,
      "SUBSIDIA": 7151,
      "accepted": 7152,
      "much": 7153,
      "arbitration": 7154,
      "Stark": 7155,
      "Claims": 7156,
      "Hutchinson": 7157,
      "indebtedness": 7158,
      "Intervenor": 7159,
      "Potter": 7160,
      "annexed": 7161,
      "ELIZA": 7162,
      "codicil": 7163,
      "contrary": 7164,
      "ANDREW": 7165,
      "Ariz": 7166,
      "Square": 7167,
      "scope": 7168,
      "Custo": 7169,
      "Instrument": 7170,
      "CHRIST": 7171,
      "COMMONWEALTH": 7172,
      "Renegotiation": 7173,
      "ciplinary": 7174,
      "INDIVIDUALLY": 7175,
      "Gonz": 7176,
      "issippi": 7177,
      "Development": 7178,
      "JOURNAL": 7179,
      "SUBSIDIARIES": 7180,
      "ARI": 7181,
      "Alice": 7182,
      "Anton": 7183,
      "Ban": 7184,
      "Blo": 7185,
      "Bever": 7186,
      "Cy": 7187,
      "Day": 7188,
      "Gam": 7189,
      "GRA": 7190,
      "Granted": 7191,
      "ITE": 7192,
      "Kal": 7193,
      "Kra": 7194,
      "KINS": 7195,
      "KANS": 7196,
      "LIA": 7197,
      "Loss": 7198,
      "MAL": 7199,
      "Mene": 7200,
      "Municipal": 7201,
      "Nathan": 7202,
      "Ok": 7203,
      "PL": 7204,
      "Pop": 7205,
      "PRY": 7206,
      "RK": 7207,
      "Soc": 7208,
      "Spar": 7209,
      "Ster": 7210,
      "Sus": 7211,
      "Sie": 7212,
      "Small": 7213,
      "TMENT": 7214,
      "UA": 7215,
      "UARY": 7216,
      "Zu": 7217,
      "ace": 7218,
      "aid": 7219,
      "black": 7220,
      "eg": 7221,
      "ety": 7222,
      "gla": 7223,
      "gles": 7224,
      "hy": 7225,
      "hor": 7226,
      "hel": 7227,
      "hle": 7228,
      "ito": 7229,
      "immigration": 7230,
      "lk": 7231,
      "lington": 7232,
      "p1": 7233,
      "pel": 7234,
      "ping": 7235,
      "practice": 7236,
      "uary": 7237,
      "vens": 7238,
      "wyer": 7239,
      "astal": 7240,
      "inn": 7241,
      "inting": 7242,
      "tant": 7243,
      "tati": 7244,
      "coca": 7245,
      "cotton": 7246,
      "cogni": 7247,
      "aron": 7248,
      "arcer": 7249,
      "1915": 7250,
      "reda": 7251,
      "LET": 7252,
      "eting": 7253,
      "sug": 7254,
      "1227": 7255,
      "1216": 7256,
      "1224": 7257,
      "1255": 7258,
      "1232": 7259,
      "1271": 7260,
      "ria": 7261,
      "occas": 7262,
      "REAL": 7263,
      "lea": 7264,
      "lear": 7265,
      "least": 7266,
      "1086": 7267,
      "shot": 7268,
      "shown": 7269,
      "2617": 7270,
      "unning": 7271,
      "uncorrected": 7272,
      "ature": 7273,
      "1118": 7274,
      "1189": 7275,
      "1156": 7276,
      "1161": 7277,
      "advised": 7278,
      "1312": 7279,
      "1360": 7280,
      "1300": 7281,
      "1372": 7282,
      "tian": 7283,
      "timore": 7284,
      "3070": 7285,
      "2799": 7286,
      "2773": 7287,
      "\">*</": 7288,
      "Dean": 7289,
      "conced": 7290,
      "containing": 7291,
      "coln": 7292,
      "beck": 7293,
      "ffman": 7294,
      "2496": 7295,
      "Application": 7296,
      "management": 7297,
      "applies": 7298,
      "ards": 7299,
      "47049": 7300,
      "47057": 7301,
      "47009": 7302,
      "permission": 7303,
      "Revers": 7304,
      "ARING": 7305,
      "44928": 7306,
      "44960": 7307,
      "44745": 7308,
      "44760": 7309,
      "mandate": 7310,
      "sound": 7311,
      "44829": 7312,
      "44839": 7313,
      "UNION": 7314,
      "Mayo": 7315,
      "Recommen": 7316,
      "Request": 7317,
      "991": 7318,
      "aterial": 7319,
      "Austin": 7320,
      "Forest": 7321,
      "DED": 7322,
      "efer": 7323,
      "Concur": 7324,
      "Contin": 7325,
      "Distribu": 7326,
      "UMBER": 7327,
      "Mountain": 7328,
      "currently": 7329,
      "statements": 7330,
      "1102": 7331,
      "evidentiary": 7332,
      "fn2": 7333,
      "sibility": 7334,
      "pleas": 7335,
      "allege": 7336,
      "consent": 7337,
      "credit": 7338,
      "MAT": 7339,
      "Bankruptcy": 7340,
      "McCoy": 7341,
      "Alfred": 7342,
      "FIEL": 7343,
      "going": 7344,
      "Arch": 7345,
      "ILCS": 7346,
      "whole": 7347,
      "valu": 7348,
      "burse": 7349,
      "gene": 7350,
      "veland": 7351,
      "VIR": 7352,
      "MARGA": 7353,
      "ualty": 7354,
      "immedi": 7355,
      "Sergeant": 7356,
      "actual": 7357,
      "HOUSE": 7358,
      "clude": 7359,
      "IOWA": 7360,
      "Clause": 7361,
      "HELEN": 7362,
      "rulings": 7363,
      "deliber": 7364,
      "drive": 7365,
      "executor": 7366,
      "Parish": 7367,
      "Elli": 7368,
      "Monroe": 7369,
      "constituted": 7370,
      "HERBERT": 7371,
      "previous": 7372,
      "LYN": 7373,
      "appa": 7374,
      "THOUT": 7375,
      "pleading": 7376,
      "BRAD": 7377,
      "client": 7378,
      "closed": 7379,
      "instructed": 7380,
      "CLAR": 7381,
      "tested": 7382,
      "Jerome": 7383,
      "morning": 7384,
      "Corre": 7385,
      "evening": 7386,
      "Supply": 7387,
      "concerns": 7388,
      "Thereafter": 7389,
      "automat": 7390,
      "BURG": 7391,
      "Cleveland": 7392,
      "raises": 7393,
      "Six": 7394,
      "protective": 7395,
      "providing": 7396,
      "Term": 7397,
      "Grocery": 7398,
      "fraudulent": 7399,
      "MONT": 7400,
      "teenth": 7401,
      "supervis": 7402,
      "Dorado": 7403,
      "********************************": 7404,
      "PRESS": 7405,
      "assessed": 7406,
      "testamentary": 7407,
      "ordinance": 7408,
      "inery": 7409,
      "conclude": 7410,
      "concluding": 7411,
      "Homeland": 7412,
      "stipulation": 7413,
      "meaning": 7414,
      "Sherman": 7415,
      "ANDERSON": 7416,
      "ready": 7417,
      "WHIT": 7418,
      "defined": 7419,
      "KKKKKKKK": 7420,
      "offered": 7421,
      "books": 7422,
      "Wallace": 7423,
      "Bryant": 7424,
      "Warehouse": 7425,
      "APPELLEE": 7426,
      "Education": 7427,
      "WRIGHT": 7428,
      "MNJ": 7429,
      "Personal": 7430,
      "around": 7431,
      "PROCEDURAL": 7432,
      "royal": 7433,
      "Chemical": 7434,
      "MORTGAGE": 7435,
      "PRECEDENTIAL": 7436,
      "CENTRAL": 7437,
      "K1MNJ": 7438,
      "PTSD": 7439,
      "Notice": 7440,
      "unanimously": 7441,
      "ELIZABETH": 7442,
      "KANSAS": 7443,
      "PRYOR": 7444,
      "cocaine": 7445,
      "unningham": 7446,
      "MARGARET": 7447,
      "=\\": 7448,
      "AV": 7449,
      "Ak": 7450,
      "Az": 7451,
      "Bass": 7452,
      "Bull": 7453,
      "Buse": 7454,
      "Cass": 7455,
      "Cast": 7456,
      "Clif": 7457,
      "DM": 7458,
      "Dated": 7459,
      "EO": 7460,
      "Fall": 7461,
      "Ferr": 7462,
      "Fees": 7463,
      "Fuel": 7464,
      "HILL": 7465,
      "HARD": 7466,
      "Hoffman": 7467,
      "JD": 7468,
      "Lock": 7469,
      "Mu": 7470,
      "MOND": 7471,
      "Metro": 7472,
      "Mullen": 7473,
      "Nes": 7474,
      "OS": 7475,
      "Pres": 7476,
      "Port": 7477,
      "Pho": 7478,
      "Pope": 7479,
      "RUS": 7480,
      "RAND": 7481,
      "RPC": 7482,
      "Sr": 7483,
      "SUS": 7484,
      "Simp": 7485,
      "Sales": 7486,
      "Ty": 7487,
      "Tok": 7488,
      "Vinc": 7489,
      "You": 7490,
      "\\\">": 7491,
      "batter": 7492,
      "cant": 7493,
      "ease": 7494,
      "gri": 7495,
      "ien": 7496,
      "judg": 7497,
      "jones": 7498,
      "lla": 7499,
      "nell": 7500,
      "sche": 7501,
      "unu": 7502,
      "uine": 7503,
      "wr": 7504,
      "wheel": 7505,
      "young": 7506,
      "ists": 7507,
      "clark": 7508,
      "incident": 7509,
      "tioned": 7510,
      "argue": 7511,
      "cious": 7512,
      "dee": 7513,
      "dez": 7514,
      "charitable": 7515,
      "aley": 7516,
      "recogni": 7517,
      "enger": 7518,
      "environmental": 7519,
      "cement": 7520,
      "iler": 7521,
      "ilton": 7522,
      "1213": 7523,
      "1215": 7524,
      "1259": 7525,
      "1252": 7526,
      "1263": 7527,
      "1253": 7528,
      "ros": 7529,
      "REV": 7530,
      "RECOR": 7531,
      "REPRES": 7532,
      "ources": 7533,
      "nific": 7534,
      "1019": 7535,
      "1035": 7536,
      "1066": 7537,
      "1070": 7538,
      "1043": 7539,
      "1077": 7540,
      "1081": 7541,
      "1091": 7542,
      "earnings": 7543,
      "folk": 7544,
      "47129": 7545,
      "1166": 7546,
      "1179": 7547,
      "1188": 7548,
      "1168": 7549,
      "1173": 7550,
      "1152": 7551,
      "1153": 7552,
      "STAN": 7553,
      "termination": 7554,
      "stra": 7555,
      "CIVIL": 7556,
      "Member": 7557,
      "ady": 7558,
      "1317": 7559,
      "1350": 7560,
      "1343": 7561,
      "Investi": 7562,
      "2340": 7563,
      "ANTH": 7564,
      "disab": 7565,
      "discharged": 7566,
      "disclosure": 7567,
      "rape": 7568,
      "max": 7569,
      "boy": 7570,
      "reply": 7571,
      "ardner": 7572,
      "fies": 7573,
      "gee": 7574,
      "olog": 7575,
      "47045": 7576,
      "47055": 7577,
      "47067": 7578,
      "47064": 7579,
      "47095": 7580,
      "owers": 7581,
      "qui": 7582,
      "quo": 7583,
      "ENTH": 7584,
      "pertin": 7585,
      "herty": 7586,
      "44720": 7587,
      "44766": 7588,
      "44755": 7589,
      "Marvin": 7590,
      "faci": 7591,
      "manner": 7592,
      "social": 7593,
      "44818": 7594,
      "undry": 7595,
      "utton": 7596,
      "across": 7597,
      "CTOR": 7598,
      "____________________________________": 7599,
      "arguing": 7600,
      "Corps": 7601,
      "Robb": 7602,
      "DEP": 7603,
      "corn": 7604,
      "aware": 7605,
      "feet": 7606,
      "Construction": 7607,
      "Council": 7608,
      "Process": 7609,
      "Program": 7610,
      "1107": 7611,
      "eviden": 7612,
      "requiring": 7613,
      "1126": 7614,
      "crew": 7615,
      "capi": 7616,
      "McG": 7617,
      "9549": 7618,
      "SE2d": 7619,
      "incarcer": 7620,
      "impor": 7621,
      "claimant": 7622,
      "vested": 7623,
      "stitute": 7624,
      "immer": 7625,
      "PARTNER": 7626,
      "Thrift": 7627,
      "sequently": 7628,
      "responded": 7629,
      "referee": 7630,
      "acts": 7631,
      "operator": 7632,
      "operating": 7633,
      "deducti": 7634,
      "Bernard": 7635,
      "Morgan": 7636,
      "Walker": 7637,
      "ported": 7638,
      "Parsons": 7639,
      "Elk": 7640,
      "felon": 7641,
      "allowance": 7642,
      "KELLY": 7643,
      "involves": 7644,
      "misconduct": 7645,
      "FACTUAL": 7646,
      "possess": 7647,
      "Byrne": 7648,
      "Enter": 7649,
      "nessee": 7650,
      "nesota": 7651,
      "WITHOUT": 7652,
      "Privacy": 7653,
      "attle": 7654,
      "equal": 7655,
      "justify": 7656,
      "plant": 7657,
      "ricult": 7658,
      "Curiam": 7659,
      "improve": 7660,
      "amendment": 7661,
      "needed": 7662,
      "testator": 7663,
      "testatrix": 7664,
      "Statutes": 7665,
      "Business": 7666,
      "Goldman": 7667,
      "association": 7668,
      "SECURITIES": 7669,
      "unlawfully": 7670,
      "attached": 7671,
      "Marie": 7672,
      "private": 7673,
      "Railway": 7674,
      "Contracts": 7675,
      "IFP": 7676,
      "Tennessee": 7677,
      "friend": 7678,
      "telephone": 7679,
      "Brush": 7680,
      "Machine": 7681,
      "Index": 7682,
      "politan": 7683,
      "organization": 7684,
      "Petroleum": 7685,
      "stolen": 7686,
      "successful": 7687,
      "TRANSFE": 7688,
      "CAROLINA": 7689,
      "Guaranty": 7690,
      "Stokes": 7691,
      "NOLD": 7692,
      "arraig": 7693,
      "INVESTMENT": 7694,
      "islature": 7695,
      ">[*": 7696,
      "seems": 7697,
      "exempt": 7698,
      "erroneous": 7699,
      "DLF": 7700,
      "Individually": 7701,
      "Customs": 7702,
      "Okla": 7703,
      "Reversed": 7704,
      "Continental": 7705,
      "Vincent": 7706,
      "RECORD": 7707,
      "REPRESEN": 7708,
      "nificant": 7709,
      ".).": 7710,
      "AQ": 7711,
      "Ax": 7712,
      "BRE": 7713,
      "BOP": 7714,
      "BLA": 7715,
      "Baldwin": 7716,
      "Cause": 7717,
      "DD": 7718,
      "Der": 7719,
      "Dre": 7720,
      "Em": 7721,
      "Edi": 7722,
      "Emer": 7723,
      "FER": 7724,
      "FLO": 7725,
      "GON": 7726,
      "Gru": 7727,
      "Gulf": 7728,
      "HL": 7729,
      "HIST": 7730,
      "Horton": 7731,
      "IAN": 7732,
      "IEL": 7733,
      "Ju": 7734,
      "Jay": 7735,
      "Knight": 7736,
      "MT": 7737,
      "Mex": 7738,
      "Merr": 7739,
      "Mey": 7740,
      "NC": 7741,
      "Name": 7742,
      "NERS": 7743,
      "OW": 7744,
      "Of": 7745,
      "Oregon": 7746,
      "Ps": 7747,
      "P2d": 7748,
      "REN": 7749,
      "Rol": 7750,
      "SR": 7751,
      "STER": 7752,
      "Stri": 7753,
      "Sim": 7754,
      "TZ": 7755,
      "TCM": 7756,
      "WOL": 7757,
      "Worth": 7758,
      "YO": 7759,
      "],": 7760,
      "af": 7761,
      "aqu": 7762,
      "acted": 7763,
      "bil": 7764,
      "blo": 7765,
      "baugh": 7766,
      "crow": 7767,
      "fare": 7768,
      "fuel": 7769,
      "housing": 7770,
      "ius": 7771,
      "imer": 7772,
      "nments": 7773,
      "oo": 7774,
      "riss": 7775,
      "sville": 7776,
      "trustees": 7777,
      "uff": 7778,
      "wire": 7779,
      "word": 7780,
      "yed": 7781,
      "=\"\">*</": 7782,
      "asking": 7783,
      "meas": 7784,
      "meda": 7785,
      "inth": 7786,
      "instant": 7787,
      "instituted": 7788,
      "org": 7789,
      "taylor": 7790,
      "chap": 7791,
      "Cow": 7792,
      "ONG": 7793,
      "rees": 7794,
      "retali": 7795,
      "TANA": 7796,
      "enz": 7797,
      "restri": 7798,
      "berty": 7799,
      "1217": 7800,
      "1233": 7801,
      "1269": 7802,
      "1202": 7803,
      "1208": 7804,
      "1254": 7805,
      "1274": 7806,
      "1272": 7807,
      "1273": 7808,
      "rich": 7809,
      "INO": 7810,
      "INCOM": 7811,
      "INTE": 7812,
      "INSON": 7813,
      "opposition": 7814,
      "opold": 7815,
      "eland": 7816,
      "level": 7817,
      "leaving": 7818,
      "1018": 7819,
      "1050": 7820,
      "1022": 7821,
      "1041": 7822,
      "1074": 7823,
      "1084": 7824,
      "1090": 7825,
      "1095": 7826,
      "too": 7827,
      "shire": 7828,
      "nothing": 7829,
      "earned": 7830,
      "2066": 7831,
      "unter": 7832,
      "alidi": 7833,
      "alien": 7834,
      "step": 7835,
      "47159": 7836,
      "atic": 7837,
      "1115": 7838,
      "1149": 7839,
      "1160": 7840,
      "1167": 7841,
      "1134": 7842,
      "empha": 7843,
      "adverse": 7844,
      "1310": 7845,
      "1328": 7846,
      "1369": 7847,
      "1386": 7848,
      "1334": 7849,
      "1332": 7850,
      "1382": 7851,
      "1371": 7852,
      "tical": 7853,
      "2800": 7854,
      "USCP": 7855,
      "confin": 7856,
      "contain": 7857,
      "colum": 7858,
      "1417": 7859,
      "1423": 7860,
      "1414": 7861,
      "1400": 7862,
      "1401": 7863,
      "ANTED": 7864,
      "dern": 7865,
      "entory": 7866,
      "eved": 7867,
      "TEMBER": 7868,
      "venant": 7869,
      "INTERNATIONAL": 7870,
      "47050": 7871,
      "47087": 7872,
      "47006": 7873,
      "47086": 7874,
      "47008": 7875,
      "6906": 7876,
      "performed": 7877,
      "Bod": 7878,
      "THIRD": 7879,
      "cket": 7880,
      "withhold": 7881,
      "ghan": 7882,
      "uses": 7883,
      "6716": 7884,
      "ARNOLD": 7885,
      "44927": 7886,
      "44787": 7887,
      "44765": 7888,
      "44759": 7889,
      "essie": 7890,
      "Marine": 7891,
      "46985": 7892,
      "LLIE": 7893,
      "44840": 7894,
      "44848": 7895,
      "44880": 7896,
      "UNPUBLISHED": 7897,
      "uting": 7898,
      "aggs": 7899,
      "Decis": 7900,
      "6212": 7901,
      "finan": 7902,
      "MEL": 7903,
      "oting": 7904,
      "train": 7905,
      "travel": 7906,
      "traffic": 7907,
      "trailer": 7908,
      "purported": 7909,
      "Consolidated": 7910,
      "duction": 7911,
      "Mother": 7912,
      "current": 7913,
      "1125": 7914,
      "sight": 7915,
      "allegation": 7916,
      "Chan": 7917,
      "ESS": 7918,
      "communications": 7919,
      "paying": 7920,
      "McLe": 7921,
      "McKin": 7922,
      "Alle": 7923,
      "serving": 7924,
      "Harper": 7925,
      "ension": 7926,
      "DERATION": 7927,
      "SELL": 7928,
      "Casey": 7929,
      "oint": 7930,
      "sets": 7931,
      "regular": 7932,
      "register": 7933,
      "Frances": 7934,
      "considering": 7935,
      "penden": 7936,
      "PARTNERS": 7937,
      "These": 7938,
      "PHY": 7939,
      "responsive": 7940,
      "coverage": 7941,
      "approach": 7942,
      "furniture": 7943,
      "1471": 7944,
      "contend": 7945,
      "Class": 7946,
      "CONSI": 7947,
      ".)</": 7948,
      "born": 7949,
      "notified": 7950,
      "corporations": 7951,
      "NY3d": 7952,
      "letcher": 7953,
      "Party": 7954,
      "Louise": 7955,
      "applications": 7956,
      "Brick": 7957,
      "Holdings": 7958,
      "jected": 7959,
      "GRANTED": 7960,
      "intention": 7961,
      "Lucas": 7962,
      "Henderson": 7963,
      "challenged": 7964,
      "MERY": 7965,
      "significant": 7966,
      "Byrd": 7967,
      "Goo": 7968,
      "Enforce": 7969,
      "answered": 7970,
      "statutes": 7971,
      "distributed": 7972,
      "petiti": 7973,
      "instruction": 7974,
      "great": 7975,
      "harm": 7976,
      "prisoner": 7977,
      "Edwards": 7978,
      "spouse": 7979,
      "governing": 7980,
      "plans": 7981,
      "recovery": 7982,
      "Investment": 7983,
      "Hammond": 7984,
      "BURKE": 7985,
      "Simon": 7986,
      "Lyle": 7987,
      "location": 7988,
      "directors": 7989,
      "Florence": 7990,
      "debtor": 7991,
      "Rivera": 7992,
      "Counts": 7993,
      "Gibbons": 7994,
      "residuary": 7995,
      "storage": 7996,
      "concludes": 7997,
      "Employment": 7998,
      "Workers": 7999,
      "Levy": 8000,
      "--------------------------------": 8001,
      "investig": 8002,
      "correctly": 8003,
      "Spring": 8004,
      "CERTI": 8005,
      "Irving": 8006,
      "representing": 8007,
      "Baltimore": 8008,
      "influ": 8009,
      "tarily": 8010,
      "Griff": 8011,
      "KENNE": 8012,
      "Hirsch": 8013,
      "doubt": 8014,
      "satisfied": 8015,
      "revocation": 8016,
      "alternative": 8017,
      "memorandum": 8018,
      "atrix": 8019,
      "fifth": 8020,
      "Jurisdiction": 8021,
      "Courthouse": 8022,
      "interpretation": 8023,
      "adequate": 8024,
      "RECOMMENDATION": 8025,
      "Olson": 8026,
      "Amounts": 8027,
      "SYSTE": 8028,
      "Seventh": 8029,
      "collision": 8030,
      "fixed": 8031,
      "SCHOOL": 8032,
      "Betty": 8033,
      "Eugene": 8034,
      "HEREBY": 8035,
      "Cayce": 8036,
      "famili": 8037,
      "Kauf": 8038,
      "metery": 8039,
      "cancellation": 8040,
      "SEPTEMBER": 8041,
      "sitting": 8042,
      "Arizona": 8043,
      "Antonio": 8044,
      "Sterling": 8045,
      "Susan": 8046,
      "Recommendation": 8047,
      "Archive": 8048,
      "VIRGIN": 8049,
      "Elliott": 8050,
      "apparently": 8051,
      "pertinent": 8052,
      "TRANSFERE": 8053,
      "Edith": 8054,
      "HISTORY": 8055,
      "Mexi": 8056,
      "CONSIDERATION": 8057,
      "+\u001f": 8058,
      "2255": 8059,
      "2445": 8060,
      "3D": 8061,
      "8th": 8062,
      "A1": 8063,
      "A6": 8064,
      "ATED": 8065,
      "ACTION": 8066,
      "BUS": 8067,
      "BAN": 8068,
      "Ball": 8069,
      "Big": 8070,
      "Cres": 8071,
      "Cron": 8072,
      "Cath": 8073,
      "Cunningham": 8074,
      "Dri": 8075,
      "EW": 8076,
      "Eck": 8077,
      "Each": 8078,
      "Eisen": 8079,
      "Fruit": 8080,
      "Gal": 8081,
      "GRI": 8082,
      "HIP": 8083,
      "ICK": 8084,
      "JI": 8085,
      "Jon": 8086,
      "Jason": 8087,
      "Ky": 8088,
      "Kil": 8089,
      "Katz": 8090,
      "Lay": 8091,
      "Lie": 8092,
      "Lane": 8093,
      "Lowell": 8094,
      "Md": 8095,
      "Mul": 8096,
      "Mun": 8097,
      "MRS": 8098,
      "NIN": 8099,
      "Pass": 8100,
      "Pul": 8101,
      "Pay": 8102,
      "PSON": 8103,
      "Run": 8104,
      "ROD": 8105,
      "Rud": 8106,
      "Sing": 8107,
      "Spen": 8108,
      "SMAN": 8109,
      "Syl": 8110,
      "Tes": 8111,
      "Ted": 8112,
      "Tank": 8113,
      "TUR": 8114,
      "TTY": 8115,
      "Twin": 8116,
      "View": 8117,
      "Wy": 8118,
      "Winter": 8119,
      "aki": 8120,
      "b94": 8121,
      "bureau": 8122,
      "b509": 8123,
      "cure": 8124,
      "dry": 8125,
      "eta": 8126,
      "ement": 8127,
      "fran": 8128,
      "gle": 8129,
      "group": 8130,
      "iff": 8131,
      "list": 8132,
      "oli": 8133,
      "sc": 8134,
      "uph": 8135,
      "umed": 8136,
      "vits": 8137,
      "watch": 8138,
      "dise": 8139,
      "divi": 8140,
      "isch": 8141,
      "cles": 8142,
      "assist": 8143,
      "erty": 8144,
      "eson": 8145,
      "esse": 8146,
      "orary": 8147,
      "dations": 8148,
      "nametext": 8149,
      "covenant": 8150,
      "arri": 8151,
      "church": 8152,
      "ances": 8153,
      "Com": 8154,
      "Cobb": 8155,
      "Cotter": 8156,
      "ONY": 8157,
      "rett": 8158,
      "reim": 8159,
      "TATION": 8160,
      "enship": 8161,
      "ema": 8162,
      "LEA": 8163,
      "ila": 8164,
      "illa": 8165,
      "1219": 8166,
      "1210": 8167,
      "1223": 8168,
      "1250": 8169,
      "1238": 8170,
      "1243": 8171,
      "1299": 8172,
      "1262": 8173,
      "1283": 8174,
      "rio": 8175,
      "rier": 8176,
      "arity": 8177,
      "occur": 8178,
      "mbers": 8179,
      "RELE": 8180,
      "opport": 8181,
      "1010": 8182,
      "tograph": 8183,
      "2033": 8184,
      "2039": 8185,
      "ERCE": 8186,
      "unconstitutional": 8187,
      "47100": 8188,
      "47130": 8189,
      "47157": 8190,
      "atment": 8191,
      "1170": 8192,
      "1151": 8193,
      "phal": 8194,
      "STARK": 8195,
      "pped": 8196,
      "terson": 8197,
      "refle": 8198,
      "1345": 8199,
      "1331": 8200,
      "1370": 8201,
      "1301": 8202,
      "1399": 8203,
      "2883": 8204,
      "labus": 8205,
      "COA": 8206,
      "USDC": 8207,
      "OFF": 8208,
      "lived": 8209,
      "Insulated": 8210,
      "confer": 8211,
      "contemp": 8212,
      "consul": 8213,
      "1433": 8214,
      "disallowed": 8215,
      "raise": 8216,
      "makes": 8217,
      "couns": 8218,
      "rus": 8219,
      "bol": 8220,
      "propri": 8221,
      "events": 8222,
      "47028": 8223,
      "PETER": 8224,
      "ellow": 8225,
      "TIC": 8226,
      "THAN": 8227,
      "THERS": 8228,
      "exh": 8229,
      "exclude": 8230,
      "Sey": 8231,
      "Revised": 8232,
      "44930": 8233,
      "44915": 8234,
      "44950": 8235,
      "44986": 8236,
      "44748": 8237,
      "44770": 8238,
      "Marshall": 8239,
      "Martha": 8240,
      "fax": 8241,
      "undred": 8242,
      "uture": 8243,
      "agents": 8244,
      "acc": 8245,
      "accompany": 8246,
      "mine": 8247,
      "Reed": 8248,
      "ished": 8249,
      "APER": 8250,
      "submit": 8251,
      "haw": 8252,
      "Joel": 8253,
      "Joint": 8254,
      "6211": 8255,
      "Force": 8256,
      "Rooney": 8257,
      "Sugar": 8258,
      "Const": 8259,
      "ices": 8260,
      "UMENT": 8261,
      "6320": 8262,
      "ADO": 8263,
      "Anna": 8264,
      "writing": 8265,
      "Wilkinson": 8266,
      "why": 8267,
      "Chil": 8268,
      "ousand": 8269,
      "cata": 8270,
      "caption": 8271,
      "McDonald": 8272,
      "series": 8273,
      "Newman": 8274,
      "Leopold": 8275,
      "buil": 8276,
      "Adjustment": 8277,
      "genuine": 8278,
      "impose": 8279,
      "pick": 8280,
      "supply": 8281,
      "safety": 8282,
      "OLPH": 8283,
      "Schu": 8284,
      "pended": 8285,
      "MANN": 8286,
      "eye": 8287,
      "SOM": 8288,
      "Barton": 8289,
      "BAUM": 8290,
      "priorhistory": 8291,
      "1441": 8292,
      "holm": 8293,
      "Texaco": 8294,
      "Charlton": 8295,
      "00033": 8296,
      "Computer": 8297,
      "agreements": 8298,
      "nowled": 8299,
      "periods": 8300,
      "Foods": 8301,
      "clean": 8302,
      "cifically": 8303,
      "Shunk": 8304,
      "director": 8305,
      "driven": 8306,
      "executors": 8307,
      "broad": 8308,
      "brother": 8309,
      "3502": 8310,
      "Great": 8311,
      "Richards": 8312,
      "affirming": 8313,
      "GROUP": 8314,
      "Holding": 8315,
      "1462": 8316,
      "constitution": 8317,
      "certiorari": 8318,
      "JUDGES": 8319,
      "Minnesota": 8320,
      "giving": 8321,
      "sign": 8322,
      "Doe": 8323,
      "exceed": 8324,
      "Herman": 8325,
      "Amusement": 8326,
      "CARL": 8327,
      "electric": 8328,
      "respective": 8329,
      "bbs": 8330,
      "Jerem": 8331,
      "Milton": 8332,
      "FEDERAL": 8333,
      "Specifically": 8334,
      "BURN": 8335,
      "Lincoln": 8336,
      "background": 8337,
      "DONALD": 8338,
      "spaper": 8339,
      "Trade": 8340,
      "Trading": 8341,
      "passenger": 8342,
      "Adam": 8343,
      "assignments": 8344,
      "MONTANA": 8345,
      "DISMISS": 8346,
      "Garcia": 8347,
      "unable": 8348,
      "separately": 8349,
      "Crawford": 8350,
      "Mississippi": 8351,
      "Catherine": 8352,
      "PRESENT": 8353,
      "SOUTH": 8354,
      "Agents": 8355,
      "organized": 8356,
      "Direct": 8357,
      "nelly": 8358,
      "penalties": 8359,
      "complained": 8360,
      "Alameda": 8361,
      "Savings": 8362,
      "Goldberg": 8363,
      "Chap": 8364,
      "Blue": 8365,
      "courtsumma": 8366,
      "checks": 8367,
      "Guardian": 8368,
      "function": 8369,
      "confession": 8370,
      "Relations": 8371,
      "Protective": 8372,
      "Fischer": 8373,
      "securities": 8374,
      "activ": 8375,
      "ELECT": 8376,
      "exceptions": 8377,
      ">],": 8378,
      "television": 8379,
      "initially": 8380,
      "extension": 8381,
      "CREED": 8382,
      "Hayes": 8383,
      "UPON": 8384,
      "immunity": 8385,
      "Victor": 8386,
      "cruel": 8387,
      "thompson": 8388,
      "Hamilton": 8389,
      "Partnership": 8390,
      "withdraw": 8391,
      "exemptions": 8392,
      "manufacturing": 8393,
      "settled": 8394,
      "johnson": 8395,
      "HIGH": 8396,
      "Leonard": 8397,
      "RAILWAY": 8398,
      "voluntarily": 8399,
      "MATTERS": 8400,
      "petitio": 8401,
      "Jean": 8402,
      "Atlanta": 8403,
      "Citizenship": 8404,
      "mnity": 8405,
      "accuracy": 8406,
      "Joyce": 8407,
      "PATRICIA": 8408,
      "analysis": 8409,
      "privilege": 8410,
      "suffered": 8411,
      "Control": 8412,
      "Clinton": 8413,
      "Knox": 8414,
      "Professional": 8415,
      "Metropolitan": 8416,
      "battery": 8417,
      "wrong": 8418,
      "ANTHONY": 8419,
      "Merrill": 8420,
      "McLean": 8421,
      "VIRGINIA": 8422,
      "NINTH": 8423,
      ".-": 8424,
      "0K1MNJ": 8425,
      "1198": 8426,
      "7454": 8427,
      "AO": 8428,
      "Aj": 8429,
      "Ame": 8430,
      "ARTH": 8431,
      "BL": 8432,
      "Bie": 8433,
      "Cen": 8434,
      "Care": 8435,
      "Dra": 8436,
      "Dair": 8437,
      "Drug": 8438,
      "Eric": 8439,
      "Echols": 8440,
      "GS": 8441,
      "GERS": 8442,
      "Hadd": 8443,
      "Higgins": 8444,
      "IH": 8445,
      "IX": 8446,
      "ITA": 8447,
      "IDA": 8448,
      "Ki": 8449,
      "KING": 8450,
      "Kay": 8451,
      "KAR": 8452,
      "KAT": 8453,
      "KENN": 8454,
      "Kern": 8455,
      "LING": 8456,
      "Lack": 8457,
      "LUMBER": 8458,
      "My": 8459,
      "Mau": 8460,
      "Pu": 8461,
      "Por": 8462,
      "Rat": 8463,
      "Rig": 8464,
      "SAND": 8465,
      "SUR": 8466,
      "SOL": 8467,
      "STO": 8468,
      "Stern": 8469,
      "Tim": 8470,
      "UF": 8471,
      "Wayne": 8472,
      "Yo": 8473,
      "Zimmer": 8474,
      "az": 8475,
      "brough": 8476,
      "cali": 8477,
      "cam": 8478,
      "dr": 8479,
      "dt": 8480,
      "fis": 8481,
      "hundred": 8482,
      "ime": 8483,
      "ium": 8484,
      "jan": 8485,
      "james": 8486,
      "locu": 8487,
      "mass": 8488,
      "mal": 8489,
      "ndon": 8490,
      "pted": 8491,
      "pul": 8492,
      "rington": 8493,
      "sper": 8494,
      "sitz": 8495,
      "tour": 8496,
      "try": 8497,
      "udent": 8498,
      "ums": 8499,
      "von": 8500,
      "ying": 8501,
      "pas": 8502,
      "pat": 8503,
      "past": 8504,
      "dia": 8505,
      "die": 8506,
      "metal": 8507,
      "erre": 8508,
      "infer": 8509,
      "ths": 8510,
      "thes": 8511,
      "dahl": 8512,
      "coma": 8513,
      "arma": 8514,
      "arose": 8515,
      "cio": 8516,
      "citing": 8517,
      "devis": 8518,
      "cha": 8519,
      "chants": 8520,
      "anda": 8521,
      "Cop": 8522,
      "Colo": 8523,
      "Coke": 8524,
      "rever": 8525,
      "LEEN": 8526,
      "ceed": 8527,
      "decisionda": 8528,
      "1212": 8529,
      "1226": 8530,
      "rol": 8531,
      "roeder": 8532,
      "ENSE": 8533,
      "ulbur": 8534,
      "opi": 8535,
      "legate": 8536,
      "1047": 8537,
      "1039": 8538,
      "1052": 8539,
      "1094": 8540,
      "tow": 8541,
      "noted": 8542,
      "nolia": 8543,
      "20DOCKET": 8544,
      "summari": 8545,
      "unded": 8546,
      "1116": 8547,
      "1117": 8548,
      "1145": 8549,
      "1132": 8550,
      "1175": 8551,
      "1181": 8552,
      "phil": 8553,
      "STAND": 8554,
      "stal": 8555,
      "ternal": 8556,
      "44879": 8557,
      "44878": 8558,
      "stre": 8559,
      "student": 8560,
      "CIT": 8561,
      "1325": 8562,
      "1322": 8563,
      "1321": 8564,
      "1356": 8565,
      "1303": 8566,
      "1375": 8567,
      "tie": 8568,
      "tiago": 8569,
      "2815": 8570,
      "2866": 8571,
      "2507": 8572,
      "2903": 8573,
      "seiz": 8574,
      "lici": 8575,
      "ligence": 8576,
      "Courts": 8577,
      "2356": 8578,
      "2397": 8579,
      "1405": 8580,
      "become": 8581,
      "beque": 8582,
      "CHI": 8583,
      "counse": 8584,
      "council": 8585,
      "deri": 8586,
      "rup": 8587,
      "bot": 8588,
      "box": 8589,
      "3584": 8590,
      "TESTA": 8591,
      "47023": 8592,
      "47070": 8593,
      "47065": 8594,
      "47097": 8595,
      "owler": 8596,
      "owski": 8597,
      "PEOP": 8598,
      "illo": 8599,
      "viation": 8600,
      "quar": 8601,
      "representative": 8602,
      "Both": 8603,
      "cke": 8604,
      "exchange": 8605,
      "exhib": 8606,
      "44979": 8607,
      "44769": 8608,
      "44788": 8609,
      "44756": 8610,
      "44777": 8611,
      "44776": 8612,
      "unders": 8613,
      "rang": 8614,
      "46949": 8615,
      "46970": 8616,
      "46999": 8617,
      "46972": 8618,
      "3436": 8619,
      "LLA": 8620,
      "44827": 8621,
      "44845": 8622,
      "44835": 8623,
      "44855": 8624,
      "44860": 8625,
      "44865": 8626,
      "UNN": 8627,
      "accounts": 8628,
      "accru": 8629,
      "mind": 8630,
      "Rehearing": 8631,
      "hoa": 8632,
      "ishment": 8633,
      "woby": 8634,
      "peace": 8635,
      "foreclose": 8636,
      ").<": 8637,
      "Rod": 8638,
      "finds": 8639,
      "FORMER": 8640,
      "ica": 8641,
      "OPHER": 8642,
      "ADJUDG": 8643,
      "cester": 8644,
      "NET": 8645,
      "mentioned": 8646,
      "thereby": 8647,
      "crete": 8648,
      "Weiner": 8649,
      "Weaver": 8650,
      "LITY": 8651,
      "LIMI": 8652,
      "dog": 8653,
      "News": 8654,
      "iae": 8655,
      "acknowled": 8656,
      "Lehigh": 8657,
      "whose": 8658,
      "comb": 8659,
      "vessel": 8660,
      "DATED": 8661,
      "ELLEN": 8662,
      "testify": 8663,
      "1194": 8664,
      "stand": 8665,
      "gery": 8666,
      "Gene": 8667,
      "responden": 8668,
      "owns": 8669,
      "international": 8670,
      "interlocu": 8671,
      "tures": 8672,
      "works": 8673,
      "operate": 8674,
      "TOWN": 8675,
      "deducted": 8676,
      "southern": 8677,
      "HEARING": 8678,
      "CONNOR": 8679,
      "calcul": 8680,
      "borro": 8681,
      "Morrison": 8682,
      "affirmat": 8683,
      "broker": 8684,
      "Santa": 8685,
      "receiving": 8686,
      "supporting": 8687,
      "requesting": 8688,
      "Graves": 8689,
      "ficiency": 8690,
      "3245": 8691,
      "Finley": 8692,
      "sufficiently": 8693,
      "CVS": 8694,
      "KEVIN": 8695,
      "witz": 8696,
      "Benson": 8697,
      "aska": 8698,
      "Administratrix": 8699,
      "additions": 8700,
      "correction": 8701,
      "presence": 8702,
      "PROTE": 8703,
      "HART": 8704,
      "concurrence": 8705,
      "CESS": 8706,
      "Warfield": 8707,
      "harass": 8708,
      "WITH": 8709,
      "farmers": 8710,
      "Milk": 8711,
      "morris": 8712,
      "cilities": 8713,
      "equity": 8714,
      "equitable": 8715,
      "Corn": 8716,
      "Support": 8717,
      "sustain": 8718,
      "sustaining": 8719,
      "remainder": 8720,
      "Linda": 8721,
      "Shaw": 8722,
      "proceeded": 8723,
      "Simmons": 8724,
      "elected": 8725,
      "Factual": 8726,
      "BARA": 8727,
      "BARBARA": 8728,
      "reveal": 8729,
      "revoked": 8730,
      "KATH": 8731,
      "Jahn": 8732,
      "Vernon": 8733,
      "Stephens": 8734,
      "declaration": 8735,
      "continue": 8736,
      "materials": 8737,
      "Growers": 8738,
      "Ques": 8739,
      "lotte": 8740,
      "DISPO": 8741,
      "Interest": 8742,
      "modify": 8743,
      "TRIAL": 8744,
      "Murphy": 8745,
      "residue": 8746,
      "opened": 8747,
      "Tenant": 8748,
      "offender": 8749,
      "ISTRATE": 8750,
      "Levine": 8751,
      "injured": 8752,
      "Gerber": 8753,
      "recommended": 8754,
      "................................................................": 8755,
      "Boyle": 8756,
      "LAST": 8757,
      "ELEVENTH": 8758,
      "reduction": 8759,
      "attachment": 8760,
      "Osborne": 8761,
      "knowing": 8762,
      "According": 8763,
      "education": 8764,
      "positive": 8765,
      "Contracting": 8766,
      "NICHOL": 8767,
      "Storage": 8768,
      "Maxwell": 8769,
      "Bruce": 8770,
      "Webber": 8771,
      "Fein": 8772,
      "JANUARY": 8773,
      "engineer": 8774,
      "Glenn": 8775,
      "enix": 8776,
      "RALPH": 8777,
      "Bowman": 8778,
      "Hardy": 8779,
      "qualify": 8780,
      "Debtor": 8781,
      "window": 8782,
      "Improve": 8783,
      "Navy": 8784,
      "Janet": 8785,
      "situation": 8786,
      "situated": 8787,
      "______________________________": 8788,
      "merely": 8789,
      "believe": 8790,
      "JEFFERSON": 8791,
      "Middleton": 8792,
      "Nevada": 8793,
      "midt": 8794,
      "regulations": 8795,
      "controlling": 8796,
      "HOMELAND": 8797,
      "furnished": 8798,
      "leming": 8799,
      "Baum": 8800,
      "Credit": 8801,
      "Cameron": 8802,
      "gift": 8803,
      "prohibition": 8804,
      "efforts": 8805,
      "points": 8806,
      "Partial": 8807,
      "SAMUEL": 8808,
      "designa": 8809,
      "Mahoning": 8810,
      "carrying": 8811,
      "I4N": 8812,
      "Theatres": 8813,
      "MAGISTRATE": 8814,
      "FOURTH": 8815,
      "Nicholas": 8816,
      "CHRISTOPHER": 8817,
      "learned": 8818,
      "Correction": 8819,
      "Ferris": 8820,
      "Portland": 8821,
      "judged": 8822,
      "incarcerated": 8823,
      "REPRESENTA": 8824,
      "chapter": 8825,
      "INCOME": 8826,
      "Enforcement": 8827,
      "Mexico": 8828,
      "accompanying": 8829,
      "Jeremy": 8830,
      "activities": 8831,
      "Census": 8832,
      "Dairy": 8833,
      "sperity": 8834,
      "ulburd": 8835,
      "STANDARD": 8836,
      "bequeath": 8837,
      "PEOPLE": 8838,
      "ADJUDGED": 8839,
      "interlocutory": 8840,
      "%\u001b": 8841,
      "017": 8842,
      "1st": 8843,
      "1193": 8844,
      "3145": 8845,
      "5th": 8846,
      "9th": 8847,
      ">)": 8848,
      "A4": 8849,
      "AZ": 8850,
      "Ay": 8851,
      "Aer": 8852,
      "ALE": 8853,
      "AAR": 8854,
      "Ami": 8855,
      "AUST": 8856,
      "BS": 8857,
      "BON": 8858,
      "Bris": 8859,
      "BEL": 8860,
      "Bron": 8861,
      "BRYAN": 8862,
      "Cul": 8863,
      "CLA": 8864,
      "CAMP": 8865,
      "CCESS": 8866,
      "Dal": 8867,
      "Dem": 8868,
      "DOD": 8869,
      "DUE": 8870,
      "FL": 8871,
      "Fal": 8872,
      "Ful": 8873,
      "Fun": 8874,
      "File": 8875,
      "Grant": 8876,
      "GARY": 8877,
      "Hur": 8878,
      "Hod": 8879,
      "Hodge": 8880,
      "Hunter": 8881,
      "Ida": 8882,
      "IVAN": 8883,
      "JC": 8884,
      "JK": 8885,
      "JUR": 8886,
      "JAM": 8887,
      "JUL": 8888,
      "Kell": 8889,
      "LR": 8890,
      "Las": 8891,
      "Len": 8892,
      "Lem": 8893,
      "Mt": 8894,
      "Moss": 8895,
      "Moff": 8896,
      "Material": 8897,
      "PS": 8898,
      "Pin": 8899,
      "Pear": 8900,
      "Plain": 8901,
      "Plainti": 8902,
      "RAN": 8903,
      "RENCE": 8904,
      "SION": 8905,
      "SAR": 8906,
      "STR": 8907,
      "Scar": 8908,
      "SHA": 8909,
      "Singer": 8910,
      "SCOTT": 8911,
      "TC": 8912,
      "Tar": 8913,
      "Tal": 8914,
      "Ur": 8915,
      "Vo": 8916,
      "Wing": 8917,
      "Wies": 8918,
      "YLE": 8919,
      "]).": 8920,
      "ama": 8921,
      "b108": 8922,
      "cra": 8923,
      "dres": 8924,
      "dock": 8925,
      "dley": 8926,
      "drew": 8927,
      "drove": 8928,
      "fu": 8929,
      "foc": 8930,
      "flo": 8931,
      "fers": 8932,
      "gardner": 8933,
      "itation": 8934,
      "ield": 8935,
      "ibility": 8936,
      "jose": 8937,
      "kid": 8938,
      "mich": 8939,
      "municipal": 8940,
      "oos": 8941,
      "omitted": 8942,
      "ppas": 8943,
      "rator": 8944,
      "sworth": 8945,
      "sister": 8946,
      "tz": 8947,
      "top": 8948,
      "uciary": 8949,
      "ucoma": 8950,
      "vator": 8951,
      "vail": 8952,
      "wau": 8953,
      "wages": 8954,
      "yt": 8955,
      "york": 8956,
      "zing": 8957,
      "zog": 8958,
      "onograph": 8959,
      "ditures": 8960,
      "tell": 8961,
      "clo": 8962,
      "club": 8963,
      "mechanic": 8964,
      "instruct": 8965,
      "industri": 8966,
      "ineligible": 8967,
      "orge": 8968,
      "thom": 8969,
      "thousand": 8970,
      "tah": 8971,
      "dam": 8972,
      "arn": 8973,
      "arch": 8974,
      "chi": 8975,
      "courtsu": 8976,
      "retail": 8977,
      "chem": 8978,
      "ended": 8979,
      "LEGAL": 8980,
      "illy": 8981,
      "1247": 8982,
      "1218": 8983,
      "1287": 8984,
      "1285": 8985,
      "1289": 8986,
      "1265": 8987,
      "1267": 8988,
      "iduciary": 8989,
      "ENTER": 8990,
      "ocal": 8991,
      "mberly": 8992,
      "REHEARING": 8993,
      "eli": 8994,
      "els": 8995,
      "elry": 8996,
      "1088": 8997,
      "toward": 8998,
      "shaw": 8999,
      "2616": 9000,
      "2600": 9001,
      "noun": 9002,
      "2030": 9003,
      "Statement": 9004,
      "ERIN": 9005,
      "undisputed": 9006,
      "monthly": 9007,
      "1186": 9008,
      "ingu": 9009,
      "ingham": 9010,
      "normalizedcite": 9011,
      "pho": 9012,
      "phew": 9013,
      "pheta": 9014,
      "ASSE": 9015,
      "staff": 9016,
      "Now": 9017,
      "adjudged": 9018,
      "1319": 9019,
      "1346": 9020,
      "1333": 9021,
      "1379": 9022,
      "1308": 9023,
      "1374": 9024,
      "crimin": 9025,
      "2850": 9026,
      "laughter": 9027,
      "2502": 9028,
      "2941": 9029,
      "2992": 9030,
      "seal": 9031,
      "1884": 9032,
      "Dept": 9033,
      "lian": 9034,
      "lick": 9035,
      "like": 9036,
      "contains": 9037,
      "contested": 9038,
      "collater": 9039,
      "1409": 9040,
      "ALJ": 9041,
      "bee": 9042,
      "bequest": 9043,
      "RIC": 9044,
      "RIDA": 9045,
      "ANNA": 9046,
      "rates": 9047,
      "mack": 9048,
      "selves": 9049,
      "wash": 9050,
      "proportion": 9051,
      "6621": 9052,
      "6654": 9053,
      "george": 9054,
      "olis": 9055,
      "ollo": 9056,
      "nephew": 9057,
      "hir": 9058,
      "ORDAN": 9059,
      "47033": 9060,
      "47089": 9061,
      "PETT": 9062,
      "guson": 9063,
      "elling": 9064,
      "pertaining": 9065,
      "permits": 9066,
      "ckel": 9067,
      "ckle": 9068,
      "excluded": 9069,
      "dington": 9070,
      "Sean": 9071,
      "Seattle": 9072,
      "ARGUE": 9073,
      "ampheta": 9074,
      "44923": 9075,
      "44900": 9076,
      "44977": 9077,
      "44747": 9078,
      "44744": 9079,
      "091": 9080,
      "essner": 9081,
      "Marion": 9082,
      "facilities": 9083,
      "appealhistory": 9084,
      "46989": 9085,
      "46977": 9086,
      "46975": 9087,
      "46953": 9088,
      "STATEMENT": 9089,
      "struck": 9090,
      "ewelry": 9091,
      "ordering": 9092,
      "Read": 9093,
      "hoga": 9094,
      "substituted": 9095,
      "ROUGH": 9096,
      "woman": 9097,
      "6214": 9098,
      "Roe": 9099,
      "DEA": 9100,
      "DECREED": 9101,
      "compens": 9102,
      "preci": 9103,
      "inside": 9104,
      "hereafter": 9105,
      "Suz": 9106,
      "weeks": 9107,
      "lawyers": 9108,
      "Cons": 9109,
      "Connor": 9110,
      "Condo": 9111,
      "Constr": 9112,
      "Prosperity": 9113,
      "icz": 9114,
      "ADAM": 9115,
      "Beam": 9116,
      "1127": 9117,
      "NEL": 9118,
      "simp": 9119,
      "charter": 9120,
      "consin": 9121,
      "creation": 9122,
      "caid": 9123,
      "ipt": 9124,
      "Reply": 9125,
      "McNe": 9126,
      "Alan": 9127,
      "umption": 9128,
      "marks": 9129,
      "ifest": 9130,
      "Subsidi": 9131,
      "petitione": 9132,
      "...........": 9133,
      "Leo": 9134,
      "LAUR": 9135,
      "FOX": 9136,
      "venth": 9137,
      "ILLIP": 9138,
      "CAAP": 9139,
      "visit": 9140,
      "buse": 9141,
      "ression": 9142,
      "latest": 9143,
      "overruling": 9144,
      "issuing": 9145,
      "LOW": 9146,
      "violating": 9147,
      "MORRIS": 9148,
      "stitutions": 9149,
      "DOES": 9150,
      "SUCCESS": 9151,
      "MANAGE": 9152,
      "Thus": 9153,
      "Through": 9154,
      "historycite": 9155,
      "PHREY": 9156,
      "PHILLIP": 9157,
      "Edwin": 9158,
      "Thom": 9159,
      "transactions": 9160,
      "Charlotte": 9161,
      "000400": 9162,
      "carried": 9163,
      "turn": 9164,
      "BETTY": 9165,
      "MOORE": 9166,
      "Div": 9167,
      "Colon": 9168,
      "contended": 9169,
      "Berry": 9170,
      "Clar": 9171,
      "borrow": 9172,
      "bars": 9173,
      "lacked": 9174,
      "Firm": 9175,
      "WARE": 9176,
      "porella": 9177,
      "briefing": 9178,
      "fails": 9179,
      "Brief": 9180,
      "returns": 9181,
      "Monte": 9182,
      "themselves": 9183,
      "Logan": 9184,
      "7502": 9185,
      "NEWSOM": 9186,
      "Associate": 9187,
      "discretionary": 9188,
      "Brun": 9189,
      "olls": 9190,
      "airs": 9191,
      "Herndon": 9192,
      "BRU": 9193,
      "void": 9194,
      "assert": 9195,
      "HAWA": 9196,
      "petty": 9197,
      "iery": 9198,
      "STEWART": 9199,
      "Milwau": 9200,
      "Eleventh": 9201,
      "Tool": 9202,
      "BROOK": 9203,
      "BROTHERS": 9204,
      "Timber": 9205,
      "Times": 9206,
      "Liquida": 9207,
      "Rucker": 9208,
      "administration": 9209,
      "GOMERY": 9210,
      "Market": 9211,
      "anderson": 9212,
      "Clean": 9213,
      "Shawn": 9214,
      "document": 9215,
      "Duke": 9216,
      "Keith": 9217,
      "Lyn": 9218,
      "Lyons": 9219,
      "bracket": 9220,
      "suspended": 9221,
      "protected": 9222,
      "judicata": 9223,
      "connected": 9224,
      "THOMPSON": 9225,
      "GERALD": 9226,
      "jointly": 9227,
      "Printing": 9228,
      "corporate": 9229,
      "losses": 9230,
      "inventory": 9231,
      "addresses": 9232,
      "Agricult": 9233,
      "Airways": 9234,
      "examined": 9235,
      "complainant": 9236,
      "complaints": 9237,
      "Veterans": 9238,
      "GREGOR": 9239,
      "Hartford": 9240,
      "Medicaid": 9241,
      "Wolfe": 9242,
      "nnn": 9243,
      "hardt": 9244,
      "bonds": 9245,
      "completed": 9246,
      "WALTER": 9247,
      "creditors": 9248,
      "WHITE": 9249,
      "hours": 9250,
      "Cuya": 9251,
      "Webster": 9252,
      "JANE": 9253,
      "Laura": 9254,
      "Ernst": 9255,
      "GORDON": 9256,
      "ineffect": 9257,
      "piece": 9258,
      "southwest": 9259,
      "Palm": 9260,
      "Palmer": 9261,
      "papers": 9262,
      "development": 9263,
      "expense": 9264,
      "Mosley": 9265,
      "venture": 9266,
      "secure": 9267,
      "Exemptions": 9268,
      "Dunn": 9269,
      "similarly": 9270,
      "FREDER": 9271,
      "0000400": 9272,
      "Hynes": 9273,
      "Pierce": 9274,
      "Treas": 9275,
      "method": 9276,
      "manufact": 9277,
      "HUMPHREY": 9278,
      "Towne": 9279,
      "annah": 9280,
      "emails": 9281,
      "controlled": 9282,
      "Master": 9283,
      "admitting": 9284,
      "Canton": 9285,
      "Pont": 9286,
      "Rubin": 9287,
      "primarily": 9288,
      "Cheryl": 9289,
      "Regina": 9290,
      "Hendricks": 9291,
      "schedul": 9292,
      "Bluff": 9293,
      "Estes": 9294,
      "polit": 9295,
      "substantially": 9296,
      "MILLS": 9297,
      "REMANDED": 9298,
      "adjudication": 9299,
      "Banc": 9300,
      "Menefee": 9301,
      "glaucoma": 9302,
      "sugges": 9303,
      "FIELD": 9304,
      "MONTGOMERY": 9305,
      "royalties": 9306,
      "SUSAN": 9307,
      "Simpson": 9308,
      "unusual": 9309,
      "Investigation": 9310,
      "ological": 9311,
      "deductible": 9312,
      "FLORIDA": 9313,
      "CERTIFI": 9314,
      "KENNETH": 9315,
      "SYSTEMS": 9316,
      "TRANSFEREE": 9317,
      "RELEASED": 9318,
      "opportunity": 9319,
      "accused": 9320,
      "ARTHUR": 9321,
      "Kimberly": 9322,
      "reversible": 9323,
      "TESTAMENT": 9324,
      "AUSTIN": 9325,
      "joseph": 9326,
      "PETTUS": 9327,
      "ARGUED": 9328,
      "SUCCESSOR": 9329,
      "MANAGEMENT": 9330,
      "Milwaukee": 9331,
      "bracketnum": 9332,
      "GREGORY": 9333,
      "Cuyahoga": 9334,
      ".*": 9335,
      ".”)": 9336,
      "2289": 9337,
      "2467": 9338,
      "7453": 9339,
      "A0": 9340,
      "A3": 9341,
      "A5": 9342,
      "Af": 9343,
      "Aff": 9344,
      "ABA": 9345,
      "Abra": 9346,
      "Bard": 9347,
      "Border": 9348,
      "Bish": 9349,
      "Brit": 9350,
      "BRA": 9351,
      "CTIONS": 9352,
      "Cran": 9353,
      "CROSS": 9354,
      "Did": 9355,
      "Dill": 9356,
      "DGE": 9357,
      "DHS": 9358,
      "Dye": 9359,
      "Dwyer": 9360,
      "EY": 9361,
      "EVAN": 9362,
      "Fort": 9363,
      "Five": 9364,
      "Fletcher": 9365,
      "Fowler": 9366,
      "Gab": 9367,
      "Gross": 9368,
      "GOLD": 9369,
      "Has": 9370,
      "Hau": 9371,
      "Hag": 9372,
      "HALL": 9373,
      "HHS": 9374,
      "Its": 9375,
      "ITAL": 9376,
      "ICIAL": 9377,
      "JES": 9378,
      "KU": 9379,
      "Ku": 9380,
      "Kid": 9381,
      "Key": 9382,
      "Keller": 9383,
      "LS": 9384,
      "Let": 9385,
      "LAR": 9386,
      "Lip": 9387,
      "LAM": 9388,
      "Local": 9389,
      "Mull": 9390,
      "MCR": 9391,
      "Molly": 9392,
      "NIS": 9393,
      "Net": 9394,
      "Neb": 9395,
      "OT": 9396,
      "Oper": 9397,
      "OTHER": 9398,
      "OTHY": 9399,
      "Pra": 9400,
      "Ply": 9401,
      "Pol": 9402,
      "Pink": 9403,
      "Point": 9404,
      "QUE": 9405,
      "Rp": 9406,
      "Rice": 9407,
      "SW": 9408,
      "Span": 9409,
      "Station": 9410,
      "Sen": 9411,
      "Sear": 9412,
      "Sad": 9413,
      "STI": 9414,
      "SBA": 9415,
      "Since": 9416,
      "Tor": 9417,
      "Tem": 9418,
      "Todd": 9419,
      "UCT": 9420,
      "UCK": 9421,
      "Vent": 9422,
      "Vol": 9423,
      "Vaugh": 9424,
      "WC": 9425,
      "Wai": 9426,
      "Writ": 9427,
      "Wise": 9428,
      "WORK": 9429,
      "Year": 9430,
      "ZON": 9431,
      "apartment": 9432,
      "bay": 9433,
      "bune": 9434,
      "b296": 9435,
      "b372": 9436,
      "b386": 9437,
      "b492": 9438,
      "b988": 9439,
      "eding": 9440,
      "feld": 9441,
      "frey": 9442,
      "ggan": 9443,
      "ira": 9444,
      "ihar": 9445,
      "knew": 9446,
      "kog": 9447,
      "lit": 9448,
      "lark": 9449,
      "lene": 9450,
      "mali": 9451,
      "ole": 9452,
      "odard": 9453,
      "promulgated": 9454,
      "pout": 9455,
      "sil": 9456,
      "spr": 9457,
      "sure": 9458,
      "tu": 9459,
      "ux": 9460,
      "zin": 9461,
      "zell": 9462,
      "zee": 9463,
      "pati": 9464,
      "pact": 9465,
      "once": 9466,
      "onso": 9467,
      "asion": 9468,
      "ascertain": 9469,
      "asuna": 9470,
      "ione": 9471,
      "meet": 9472,
      "mell": 9473,
      "ery": 9474,
      "inal": 9475,
      "inding": 9476,
      "incre": 9477,
      "inmate": 9478,
      "invested": 9479,
      "ores": 9480,
      "davis": 9481,
      "darelli": 9482,
      "nance": 9483,
      "namely": 9484,
      "code": 9485,
      "coast": 9486,
      "1903": 9487,
      "mmings": 9488,
      "deci": 9489,
      "dece": 9490,
      "chat": 9491,
      "Coach": 9492,
      "fores": 9493,
      "pagin": 9494,
      "renew": 9495,
      "revo": 9496,
      "repair": 9497,
      "rejected": 9498,
      "chen": 9499,
      "TAN": 9500,
      "oft": 9501,
      "ISON": 9502,
      "berman": 9503,
      "berger": 9504,
      "berdorf": 9505,
      "1266": 9506,
      "1288": 9507,
      "1275": 9508,
      "1284": 9509,
      "ritory": 9510,
      "robe": 9511,
      "robinson": 9512,
      "ENG": 9513,
      "INTER": 9514,
      "andon": 9515,
      "oples": 9516,
      "nut": 9517,
      "lev": 9518,
      "1097": 9519,
      "toma": 9520,
      "parker": 9521,
      "2611": 9522,
      "2027": 9523,
      "steel": 9524,
      "47193": 9525,
      "47116": 9526,
      "47167": 9527,
      "47170": 9528,
      "47118": 9529,
      "47179": 9530,
      "47176": 9531,
      "atrobe": 9532,
      "11500": 9533,
      "RTE": 9534,
      "terly": 9535,
      "terman": 9536,
      "INGHAM": 9537,
      "stine": 9538,
      "advertising": 9539,
      "1311": 9540,
      "1315": 9541,
      "1392": 9542,
      "1396": 9543,
      "tier": 9544,
      "2819": 9545,
      "2854": 9546,
      "2510": 9547,
      "2551": 9548,
      "3066": 9549,
      "2792": 9550,
      "2905": 9551,
      "1888": 9552,
      "1881": 9553,
      "USCA": 9554,
      "1503": 9555,
      "limit": 9556,
      "conce": 9557,
      "consecu": 9558,
      "condem": 9559,
      "1412": 9560,
      "1413": 9561,
      "1498": 9562,
      "longer": 9563,
      "RICK": 9564,
      "RIVER": 9565,
      "ffley": 9566,
      "ANE": 9567,
      "ANY": 9568,
      "disclose": 9569,
      "mping": 9570,
      "mated": 9571,
      "CHIE": 9572,
      "CHRIS": 9573,
      "dered": 9574,
      "2225": 9575,
      "posted": 9576,
      "possible": 9577,
      "entitlement": 9578,
      "eval": 9579,
      "evision": 9580,
      "fence": 9581,
      "reporter": 9582,
      "Reser": 9583,
      "6659": 9584,
      "3835": 9585,
      "47020": 9586,
      "47015": 9587,
      "47024": 9588,
      "47007": 9589,
      "47005": 9590,
      "47098": 9591,
      "owder": 9592,
      "iron": 9593,
      "guous": 9594,
      "illman": 9595,
      "quist": 9596,
      "quoting": 9597,
      "6015": 9598,
      "6907": 9599,
      "6908": 9600,
      "performance": 9601,
      "THROUGH": 9602,
      "withdrew": 9603,
      "moore": 9604,
      "exclusion": 9605,
      "expert": 9606,
      "6597": 9607,
      "4223": 9608,
      "ARL": 9609,
      "44918": 9610,
      "44917": 9611,
      "44980": 9612,
      "44955": 9613,
      "44957": 9614,
      "44978": 9615,
      "44780": 9616,
      "44789": 9617,
      "prise": 9618,
      "tention": 9619,
      "abilities": 9620,
      "cially": 9621,
      "46979": 9622,
      "46986": 9623,
      "46978": 9624,
      "manifest": 9625,
      "44847": 9626,
      "44830": 9627,
      "44833": 9628,
      "44836": 9629,
      "44887": 9630,
      "aggre": 9631,
      "agrees": 9632,
      "THEOD": 9633,
      "minutes": 9634,
      "Republic": 9635,
      "ryn": 9636,
      "parts": 9637,
      "subsidi": 9638,
      "substitute": 9639,
      "Sept": 9640,
      "ROAD": 9641,
      "wool": 9642,
      "Dist": 9643,
      "Discrimination": 9644,
      "Disciplinary": 9645,
      "***": 9646,
      "foreign": 9647,
      "Form": 9648,
      "Roman": 9649,
      "Rochester": 9650,
      "DES": 9651,
      "compu": 9652,
      "prevail": 9653,
      "instate": 9654,
      "officially": 9655,
[...]
